{"Ġpregnant": 5283, "beard": 44330, "Ġspy": 10258, "Ġconcerts": 12858, "Ds": 32634, "ĠTwain": 34878, "ouncing": 28981, "at": 415, "Ġupbeat": 14899, "Screen": 42102, "Ġpieces": 3745, "Ġoutp": 18963, "Ġentirely": 4378, "ĠCater": 20322, "ĠInternal": 18387, "ĠFault": 42398, "ĠOverall": 7806, "Ġpreclude": 40937, "girl": 19347, "anders": 37429, "ĠHay": 6280, "eric": 41675, "chart": 40500, "Can": 10836, "CAN": 31448, "ĠAmmunition": 46643, "ogly": 39218, "Ġshuttle": 19463, "ĠLines": 17217, "Ġdense": 19790, "Ġobsession": 20146, "Ġstimulates": 42481, "represented": 26716, "Ġpersist": 16403, "Ep": 39318, "Ġmemorial": 7041, "Ġneither": 5063, "ĠTRAN": 26933, "ĠAlgeria": 21774, "ĠSacred": 25095, "Ġrecy": 28347, "Ġ243": 35412, "xy": 32027, "Ġscreening": 7231, "Non": 33239, "Ġregretted": 27611, "Active": 42586, "ĠSaudis": 20313, "Ġoppressed": 32881, "Ġposed": 7444, "Ġagendas": 30490, "Ġconsecut": 41197, "Ġfind": 465, "Ġ1941": 27939, "ĠUpload": 45491, "Ġcove": 38676, "Ġspecifications": 17697, "about": 9006, "Ġmarriages": 21304, "ĠMonday": 302, "Ġemerged": 4373, "ault": 8839, "ĠCrimea": 15575, "Stew": 44317, "ĠSweet": 10959, "Ġrigged": 27344, "brate": 39518, "ĠInc": 603, "Zip": 47945, "Ġtagging": 34694, "sic": 15335, "channelAvailability": 50220, "Ġextended": 3112, "Ġviolently": 26435, "Shadow": 45418, "ĠGem": 14435, "rehensive": 47900, "ĠThroughout": 13231, "ĠTelegram": 20681, "Ġcereal": 25629, "ä¼": 48341, "ĠNort": 17614, "ĠAlec": 22767, "ĠBarack": 4282, "Ġfiction": 11845, "tery": 13237, "Ġposted": 1278, "Ġlousy": 38909, "Ġelectroly": 39875, "cycles": 43407, "ottesville": 45713, "Ġdarling": 30213, "218": 30487, "ĠCompl": 20722, "ĠQian": 44069, "anking": 20327, "Ġpractices": 3464, "ĠEating": 30437, "unicip": 46951, "Ġbundle": 19489, "Ġgameplay": 23841, "resource": 44814, "Ġreconstruct": 30254, "Ġdrunken": 19835, "Ġrobbers": 26379, "Ġstem": 10114, "Christ": 26352, "ĠSituation": 34346, "ynchron": 47999, "Width": 49162, "Ġreflects": 6771, "isu": 30569, "Ġenzymes": 35309, "Ġsilence": 7308, "Tom": 15691, "onz": 18085, "Ġnationalism": 21847, "ĠCrime": 6624, "Ġfertile": 31351, "ĠEXP": 28322, "ĠNeville": 21344, "Ġmapping": 20410, "Ġgrown": 3831, "ĠPrior": 7987, "Ġprox": 43860, "ĠCros": 25858, "Ġsmoked": 19894, "Ġbelonging": 11441, "Ġwedd": 44398, "Compan": 49028, "Ġdevise": 34901, "Handle": 48678, "Ġresonance": 35114, "ols": 11925, "license": 46344, "room": 4294, "ĠMerch": 41013, "unit": 19304, "Ġbeauty": 4002, "atile": 36931, "183": 30662, "Ġdign": 19210, "Ġtrance": 45080, "Brien": 9814, "ookie": 31113, "ĠWired": 36572, "278": 30442, "Ġblinking": 42885, "Ġretirees": 21156, "ureau": 44685, "413": 36108, "ĠEllie": 22407, "Ġbaking": 14814, "otent": 41098, "Ġawards": 4188, "Ġmanipulative": 39802, "Ġduration": 13428, "Ġstriking": 5690, "Ġlearns": 25269, "ĠM": 256, "ĠIPM": 46763, "aryn": 31604, "Ġfaulty": 23624, "NK": 39933, "Ġindie": 18572, "TON": 8081, "Ġpremise": 18805, "Sc": 12645, "ĠUniversal": 9973, "Ġtypically": 3700, "Ġrhetoric": 8770, "mail": 6380, "ĠInvestigators": 7847, "ĠTimbers": 34303, "Button": 48053, "Ġ<+": 50236, "Ġcircum": 38529, "MRI": 44903, "ĠYard": 21597, "ammy": 40772, "Ġincompatible": 37228, "ĠLouise": 12886, "Ġcomposing": 40983, "form": 3899, "ttes": 37923, "Ġ*": 1009, "ĠPotato": 38855, "ĠBP": 12184, "Ġfinely": 29535, "ĠKid": 10927, "tto": 26187, "Ġdignity": 12028, "cause": 27037, "Ġfeeding": 10943, "Ġopposes": 20408, "Ġfaces": 2419, "Ġtools": 3270, "pes": 29270, "Ġlaughed": 13503, "ĠComet": 30594, "ĠIntelligence": 6558, "ĠCathy": 23519, "ĠAgric": 33125, "Ġmechanical": 12418, "ĠBett": 23479, "Ġtraction": 14443, "Ġopioids": 16202, "ĠShoot": 28453, "jobs": 41207, "Ġfrequent": 7690, "ĠMer": 4213, "Ġmagic": 8375, "ĠRating": 8998, "Ġpacked": 6515, "Ġgravy": 33729, "ĠFoot": 13324, "Story": 39630, "ĠDG": 25497, "destruct": 37808, "panel": 40465, "ĠRussian": 1083, "portion": 42222, "Ġsided": 26710, "ĠSamar": 17882, "Ġfabric": 10199, "Ġsmugg": 29132, "ably": 4735, "ĠHall": 1631, "timeout": 49109, "Ġ177": 28664, "opens": 35800, "ĠVaj": 31786, "Ġitself": 1495, "lest": 35230, "ĠBits": 42582, "63": 5449, "Ġrash": 21563, "ventures": 42506, "ĠMotors": 8484, "missing": 41947, "ĠLatest": 9385, "Actually": 36900, "};": 49423, "Ġcomputers": 7796, "Ġapost": 39070, "istry": 20217, "oct": 32643, "GROUND": 45604, "Ġninja": 44764, "211": 30050, "Ġrewrite": 27549, "Ġsurrounded": 7501, "Ġever": 655, "increasing": 32313, "tin": 24276, "ĠOlymp": 14993, "ĠExtreme": 24495, "stice": 36763, "Ġextensive": 4935, "ĠSyl": 40604, "ĠMask": 31755, "imeo": 40247, "affer": 16717, "ULT": 25938, "Ġlinear": 26956, "Ġmeticulously": 34586, "uda": 10876, "Ġinnovations": 14293, "ington": 6598, "huge": 30214, "fps": 36151, "Ġchips": 8053, "Ġhtt": 49805, "Ide": 42233, "ĭ": 13859, "lists": 23583, "Ġhumanitarian": 6727, "ĠDN": 40138, "ĠExperts": 12511, "ĠProxy": 45571, "ĠDSM": 43657, "feel": 35702, "%": 207, "Ġsoftly": 37498, "Ġfifteen": 23843, "isters": 16729, "ĠPurs": 30348, "Chelsea": 27725, "pole": 33254, "Ġcompression": 26640, "Ġsarcast": 42706, "Ġtap": 5797, "Ġgin": 23857, "byss": 49889, "29": 2890, "771": 40652, "Ġsympath": 19023, "Ġeligibility": 14199, "Ġairlines": 8537, "Ġnuance": 37784, "ĠPeterson": 9558, "rect": 41087, "ĠBaghdad": 16121, "ĠMacron": 6118, "Ġseminal": 36059, "Ġspecially": 18041, "Ġ---": 21394, "ĠNSW": 11618, "Ġbanners": 22058, "Ġholders": 9758, "Ġphoto": 1345, "services": 28023, "ĠSoviets": 40971, "Ġastounding": 29932, "encer": 24077, "imb": 16231, "ĠHydra": 39059, "Ġindicates": 8711, "Ġ367": 41682, "330": 21190, "defined": 30764, "ĠAlban": 25920, "Ġvenerable": 38162, "phi": 32079, "Ġbirds": 7723, "ĠPyramid": 40811, "Ġfluffy": 33564, "ĠAm": 1918, "Ġstickers": 24977, "ĠBuddy": 24180, "Ġcabbage": 33748, "Ġforfeiture": 33191, "Ġ204": 28325, "ĠIc": 24768, "obs": 14247, "Ġeffortlessly": 30517, "Ġbidder": 24034, "ĠAff": 11176, "Ġplays": 1974, "ĠAmbro": 47043, "Ġaccordance": 10753, "ĠKard": 44558, "Ġnurs": 37104, "Ġonline": 804, "Teen": 39556, "ĠSteam": 18120, "327": 35253, "agging": 12771, "ĠTur": 7422, "Ġmisogyn": 34629, "Ġblockbuster": 16182, "ĠMatters": 26588, "ometer": 12687, "Ġswearing": 21854, "limits": 38942, "557": 38781, "ĠRP": 34389, "ĠInv": 9318, "padding": 48921, "Ġpious": 44843, "Lewis": 32828, "Ġ490": 40569, "Ġfancy": 13185, "Ġdefined": 6533, "Ġsuffix": 47503, "Ġdemeanor": 31764, "Ġlabyrinth": 41497, "Ġensures": 14905, "Ġmagnets": 39362, "Ġassassin": 38109, "Ġont": 25099, "Ġsatisfied": 10028, "Ġinscribed": 40443, "CA": 4054, "Ġecosystem": 10764, "Ġediting": 5390, "Ġcoefficients": 48550, "Ġgrieving": 22567, "Ġtornado": 17271, "Ġqualifier": 18008, "Ġot": 19313, "Ġapplied": 5049, "merga": 41386, "ĠArch": 10832, "Ġblast": 7814, "Ġinsiders": 8169, "Ġencoded": 45320, "Ġric": 24421, "Ġapproaching": 8955, "ĠTight": 31589, "Ġanyway": 6992, "Ġ#####": 49518, "Instead": 23271, "Code": 41555, "remember": 40451, "ĠSapphire": 41435, "cuts": 36573, "Ġstaffer": 19967, "Ġouts": 10229, "sponsored": 16032, "Ġsupplemented": 39647, "terrorist": 31456, "oof": 37298, "ĠCascade": 34853, "Ġreminded": 9180, "Afee": 35491, "Ġdispatched": 14987, "ĠTHANK": 42787, "Ġzipper": 43805, "Ġmp": 44857, "ĠPanther": 15148, "mining": 33527, "isans": 24103, "atural": 47310, "tained": 43672, "Ġgrounded": 16335, "llor": 31836, "(\"": 46469, "ĠDahl": 26380, "Local": 24476, "Ġcorrection": 14921, "Ġsurviv": 44204, "arrison": 42792, "10000": 47303, "WASHINGTON": 5762, "Ġconduit": 37237, "ĠMonitor": 23328, "Ġobserve": 14095, "Ġprovocation": 29995, "ĠForever": 25201, "level": 4483, "but": 4297, "Ġclans": 44363, "Ġintegrity": 7066, "Ġcaffe": 45167, "ModLoader": 50089, "Û": 44148, "ĠJuda": 48026, "Ġfledgling": 31301, "Ġhandling": 5516, "Ġlessen": 28383, "Ĭ": 27969, "aila": 31692, "Ġfurry": 31053, "ĠOrche": 44544, "Ġmarketing": 2474, "Ġextinct": 31703, "the": 627, "Ja": 38649, "Ġaccusations": 6124, "Ġsings": 22707, "Ġeliminating": 13209, "ĠOculus": 26102, "ĠGNOME": 45887, "ĠVel": 12570, "Ġswinging": 19143, "ĠUnable": 39226, ".),": 12345, "ĠHSBC": 12699, "Ġslate": 15777, "ye": 4717, "raved": 42990, "Sche": 42264, "tal": 29420, "Ġcant": 17672, "Ġeyel": 26635, "Ġvisibility": 11915, "Ġblasp": 44605, "graph": 44143, ">>>>": 48902, "ĠPowerShell": 47734, "Ġdiscount": 6720, "ĠSilk": 26537, "ĠJupiter": 21217, "Produ": 41999, "Ġtracking": 6779, "ĠClippers": 12190, "Ġbuys": 13079, "Ġkilled": 848, "itars": 45892, "ĠLov": 16267, "ĠDecember": 719, "Williams": 23886, "furt": 45464, "ango": 12379, "bytes": 46823, "697": 38719, "Ġwel": 18965, "Ġmeats": 26627, "27": 2518, "Ġstray": 21480, "ĠGorsuch": 16524, "Ġdistract": 21943, "percent": 13566, "Indeed": 40566, "orkshire": 45762, "Blocks": 48217, "Ġneo": 17863, "ouses": 27195, "Ġcurse": 26020, "legraph": 39156, "ĠEp": 14230, "ĠArm": 10617, "ĠBlood": 11391, "Ġatroc": 38743, "Ġblocked": 4953, "Ġfleeting": 33744, "Ġmailbox": 36661, "Ġbait": 22836, "Ġunemployed": 17580, "Ġdetail": 4617, "Ġtrenches": 32872, "LU": 39826, "NOTE": 46599, "omination": 43539, "ĠDestroyer": 44884, "Ġmodes": 19180, "Ġconsumer": 2267, "xual": 47830, "Transfer": 46552, "ĠSith": 33922, "boys": 22505, "Ġvap": 39616, "ĠGi": 12422, "thinking": 22710, "ĠEminem": 34749, "548": 38714, "Men": 17762, "ĠSquirrel": 39989, "3000": 31640, "Ġsanct": 27600, "Ġknockout": 14647, "Ġexperiences": 3734, "Ġfinancial": 613, "Ġabducted": 18782, "ĠSuperman": 25143, "Ġsequences": 26929, "Ġblur": 28133, "Ġbombers": 20824, "ĠEnhanced": 37542, "Ġdonations": 5215, "ĠHE": 12925, "ĠIndonesia": 5722, "ĠMarian": 19035, "stab": 41842, "Ġmilitia": 17157, "Ġatheist": 41567, "Ġprotection": 2591, "ĠL": 226, "Ġfuss": 29520, "ĠSatisf": 41802, "pressure": 28250, "uria": 31695, "ĠMcA": 34683, "Ġgrapp": 29298, "CNN": 16256, "Ġdavidjl": 50152, "Ġchar": 16224, "annabin": 45123, "ĠEXT": 37491, "chall": 25324, "Ġbrake": 18507, "ĠKun": 15941, "Ir": 34547, "Ġindicate": 6364, "Ġperished": 34316, "ĠPenn": 5953, "Ġtwin": 9544, "ĠDunn": 15074, "Ġdisposition": 31779, "Ġparaph": 40127, "ĠSkull": 39481, "ĠTW": 17535, "ithmetic": 48961, "Ġpersons": 5151, "roups": 46898, "erala": 45789, "ĠFiat": 17160, "enter": 11798, "umph": 39988, "ĠCar": 1653, "Indian": 25767, "Ġbuzz": 8775, "ĠSheldon": 21882, "());": 49291, "ĠTottenham": 7570, "Ġsecret": 3556, "ĠCompan": 44289, "opot": 43895, "Ġcalculating": 29770, "Ġdevices": 2110, "ĠExplorer": 26318, "Ġrel": 6258, "ĠAlam": 22223, "ĠBelg": 34132, "aces": 11667, "ĠIdentified": 46821, "ĠCrist": 8767, "redients": 48205, "ĠSouth": 391, "rovers": 39638, "Pure": 44214, "Ġvig": 28131, "Ġstrand": 36875, "Ġdimensions": 22735, "Ġregeneration": 33077, "ĠKus": 34336, "ĠRequirements": 41333, "ĠMillennium": 22559, "Ġhinder": 26679, "ĠKimmel": 18580, "ĠOPEC": 9349, "Ġissue": 696, "Ġdominates": 28028, "Ġassigns": 42091, "åĳ": 49126, "ĠNotes": 17152, "Ġinhibit": 37826, "ĠMAG": 29505, "ĠIntrodu": 32687, "ĠAlph": 34855, "Ġkilograms": 23096, "Ġrespectful": 18025, "ĠArmed": 11453, "ĠMobility": 30480, "Requires": 49134, "Ġwages": 6729, "Ġministerial": 22822, "),\"": 13198, "ĠWar": 1771, "arters": 40758, "cription": 33112, "Ġ41": 3492, "Ġpots": 26520, "hyd": 30420, "Ġbatt": 36325, "ĠReference": 34177, "upt": 29809, "Sav": 36138, "esp": 21359, "PG": 8332, "Ġbankruptcy": 7388, "Ġquad": 15694, "Ġlone": 10801, "adows": 35207, "ick": 1758, "jay": 15448, "sc": 3866, "ĠCCP": 43112, "Ġbitcoins": 38811, "Ġsu": 2628, "Ġexhib": 27937, "Social": 28565, "ĠguiActiveUn": 50162, "ĠFEC": 39731, "ĠEdmund": 17862, "Ġ}": 35524, "creen": 37346, "ĠZed": 40064, "ĠEEG": 46023, "Ġquestioning": 8026, "Apr": 41872, "ĠNeedless": 30575, "ĠBennett": 7959, "Ġtweaking": 35837, "Adjust": 46493, "required": 44240, "ĠMorg": 32720, "ĠGre": 6879, "Ġancestry": 33209, "ĠYe": 11467, "Best": 19183, "ryan": 29022, "aos": 34317, "Ġsentiments": 18316, "Ġelevation": 25361, "Ġminister": 1269, "Ġmillennia": 40887, "801": 39624, "Ġscant": 26583, "Ġtenure": 7703, "ĠDev": 7439, "Ultimately": 32591, "Ġhandcuffs": 29374, "ĠNunes": 18908, "sequent": 39022, "ĠVit": 24589, "%]": 48513, "EC": 3586, "unal": 37972, "ĠThomas": 1813, "Ġcommanders": 21327, "Ġfrench": 41259, "thritis": 44491, "Box": 26621, "ĠRadical": 37749, "achine": 47480, "ĠJag": 17478, "Ġpc": 46213, "ĠDenise": 18869, "mods": 49301, "Ġshortly": 3691, "ĠMong": 33968, "Ġhy": 14791, "ĠLinux": 15826, "reenshot": 39469, "olithic": 36941, "Ġsupports": 4548, "jas": 19798, "forms": 33334, "Ġconnectivity": 10335, "ĠObi": 27954, "71": 5339, "ĠDhabi": 13125, "aks": 6629, "ĠSat": 8918, "Ġwealthiest": 27087, "ĠAthlet": 27417, "Ġrepeal": 8189, "ĠRetro": 38684, "Ġanimosity": 34351, "ovsky": 23410, "Ġhackers": 11344, "Ġchrome": 34605, "Ġenduring": 16480, "vantage": 47051, "Ġillustrate": 23168, "rals": 38473, "ĠWorcester": 22963, "Ġcheating": 14153, "itive": 15589, "Ġartists": 3528, "gnu": 49022, "blank": 35763, "Ġbureaucr": 38722, "ĠActiv": 18953, "********": 44116, "Ġ1995": 7969, "rastructure": 43455, "Ġdrowning": 22866, "romy": 41643, "Ġbarrels": 6745, "Ġtack": 24420, "Ġwink": 39422, "ĠMilk": 22124, "Ġchickens": 21430, "ansas": 38058, "Ġfencing": 23281, "Ġdirt": 10667, "Ġobvious": 4678, "ĠBounce": 44111, "ĠEther": 35562, "pend": 43238, "Sur": 27526, "ĠResort": 10989, "Ġ|": 1721, "eat": 21046, "Ġvalid": 8218, "Ġconscious": 13316, "volt": 28989, "Ġqueues": 29803, "Ġanswered": 7173, "assing": 13613, "Ġpartition": 34255, "ĠHOL": 38364, "ĠMillennials": 27836, "436": 38324, "iov": 32822, "Ġstiffness": 37760, "Ġ291": 40030, "ĠLeah": 16184, "idav": 46121, "Ġchimpanzees": 44596, "Ġ69": 5913, "ĠConvert": 32988, "Ġï": 33549, "ĠCJ": 17468, "Ġcandy": 12644, "ĠMinimum": 32600, "Ġdich": 32325, "mur": 20541, "Steven": 33184, "Ġtomatoes": 18553, "Ġrocky": 18443, "Ġbackground": 3618, "Ġsupposed": 3518, "ĠOlson": 19617, "Ġbilled": 17240, "ordering": 43976, "Har": 17488, "Ġcondo": 20568, "ĠDOT": 30510, "iblical": 47825, "Ġencryption": 23061, "Ġletter": 1601, "Property": 44720, "Ġchallenger": 15415, "oples": 46051, "Ġenzyme": 32834, "ĠBAR": 26676, "ocating": 18106, "Ġexaminer": 23608, "Ġdriveway": 17139, "Ġspoiled": 29136, "Ġenz": 46538, "Ġleak": 9324, "yne": 20706, "itial": 48834, "ĠStatue": 35549, "Ġanx": 27442, "\",": 1297, "ĠPoison": 39866, "ĠBil": 11611, "Ġonset": 23808, "Ġsoul": 7047, "speech": 40511, "orship": 11887, "ĠDurant": 11023, "Ġ<=": 49230, "367": 34036, "UE": 9162, "ĠSubway": 31891, "Ġfugitive": 27157, "Ġgrape": 24410, "OOD": 26462, "Ġearnest": 22623, "×Ļ": 48177, "Ġcoerc": 48993, "prone": 27512, "Ġlasts": 19646, "Ġsetbacks": 21417, "Ġyeah": 11380, "ĠCA": 5267, "Ġacknowledged": 5055, "Ġliaison": 27553, "r": 338, "AMY": 46838, "ĠSang": 18002, "iliate": 43081, "ĠEngineering": 9466, "866": 30205, "Ġmaker": 4403, "chron": 30630, "Ġextraordinary": 7116, "Ġbark": 28847, "ĠUnless": 17273, "Ġsunscreen": 29728, "Law": 22532, "ĠLater": 6811, "Ġunconsciously": 45230, "806": 38717, "roid": 36866, "ĠSer": 6251, "Ġclumsy": 38734, "Money": 25256, "eness": 14186, "ID": 2688, "200": 2619, "Ġremote": 6063, "ĠRB": 11191, "Throughout": 36428, "ĠTechnique": 46252, "reau": 23152, "elsen": 35573, "Ġwizards": 44859, "Ġoperator": 5364, "ournament": 37535, "open": 12592, "ĠHuang": 25918, "ĠStreaming": 34245, "poll": 23605, "ullah": 18778, "Ġ});": 47771, "ĠJerry": 6509, "Ġforesee": 31437, "ĠHo": 5082, "btn": 49231, "ĠAHL": 22457, "Ġrejected": 3946, "ismo": 19689, "ĠGadget": 47087, "eu": 25171, "Ġinvoked": 29198, "Ġgrou": 22970, "ĠRider": 30037, "Ġstructures": 6609, "Ġartifact": 43260, "ĠCFR": 42471, "Ġ1600": 25183, "Ġprivileged": 18560, "potion": 49769, "ĠNeutral": 35133, "ĠUser": 27913, "Ġsaga": 17466, "uder": 34612, "Dream": 27124, "Ġclassic": 4187, "Ġrejuven": 26439, "erson": 4277, "su": 9228, "Ġ150": 3982, "ĠDug": 15165, "ĠLennon": 23563, "Ġdawn": 14131, "ĠIRC": 44756, "Ġsuits": 10401, "nuts": 22483, "Auth": 44298, "ĠPul": 13006, "ĠExecution": 44396, "ĠSwordsman": 49610, "ĠXXX": 34528, "Ġshouldn": 4395, "Ġdefamation": 21869, "ĠCu": 10016, "ĠBlue": 2692, "ĠTLS": 46402, "gren": 22470, "unknown": 42230, "heet": 25148, "Ġrac": 13816, "Ġmajesty": 44446, "Ġcervical": 29851, "Ġ850": 24137, "Ġspelled": 29341, "Ġleather": 9219, "ĠEth": 24293, "Ġadj": 34703, "Ġappeals": 7688, "æĪ": 47876, "Ġtwice": 2330, "ĠVictims": 25320, "Ġdetain": 25255, "Ġtruly": 3127, "ĠHaku": 48700, "ĠBurton": 14042, "Catalog": 49354, "based": 805, "455": 31546, "father": 14891, "Ġcorpse": 29763, "McC": 37730, "compliance": 33182, "Ġadvocacy": 8973, "Ġupright": 25922, "icion": 18920, "tele": 35336, "Ġcell": 3551, "birds": 17921, "ikuman": 50010, "ĠLob": 20561, "ess": 3361, "Site": 40122, "Ġfresh": 2310, "ĠANC": 11399, "ranging": 20091, "ITION": 25815, "FAQ": 48685, "ĠAV": 17307, "yrs": 39542, "ĠPistons": 18290, "ĠPis": 29973, "armed": 17651, "ĠBeta": 25905, "ĠDoors": 23695, "aldi": 22564, "Ġequilibrium": 39342, "Organ": 37034, "83": 6361, "Ġrings": 11987, "ĠHoo": 41598, "Ġworship": 13405, "League": 17608, "Ġmasked": 24397, "Ġmaple": 27287, "Ġimmigrants": 4175, "Det": 43170, "Ġ154": 25502, "Ġsprint": 12631, "ĠDocument": 27246, "ĠDragons": 20813, "ordial": 44577, "Member": 45899, "endon": 27609, "izens": 38839, "ĠUltimate": 19687, "Charl": 33193, "Advertisement": 41187, "Ġmatured": 33089, "Ġsophistic": 48802, "ĠEnhance": 42658, "IV": 6372, "Ġembark": 14976, "Ġtiger": 23921, "ĠMister": 40972, "Ġstrange": 7782, "Ġreptiles": 38795, "äº": 46499, "Ġexperimenting": 26038, "Ġembold": 24762, "isl": 13714, "Ġtransferred": 7225, "])": 45587, "Ġdishonest": 27820, "èĪ": 48967, "ec": 3204, "150": 6115, "ĠKingdom": 5752, "499": 26518, "ĠIdaho": 10604, "imposed": 24039, "âĿ": 30151, "Ġunearthed": 30182, "Ġrepentance": 44627, "ĠPetersen": 27826, "Byte": 47447, "blocking": 38797, "âĨ": 49175, "Ġkindred": 44249, "ĠCorrespond": 24388, "Ford": 36982, "390": 27873, "Ġcode": 3260, "Sport": 19451, "ast": 1988, "Ġjerk": 35786, "Ġtechno": 40385, "ĠRapt": 38102, "Ġinvent": 11022, "Ġcomplied": 25300, "Ġdesperate": 7764, "ĠAdults": 28909, "ĠEar": 17637, "Ġchildish": 40531, "ĠEddie": 9257, "ĠKeystone": 21708, "Ġsuspic": 48864, "onic": 10003, "Jews": 44451, "ĠIntegrated": 21906, "ificial": 37465, "antic": 26970, "ĠSpe": 8330, "Ġentrants": 21158, "ĠPoint": 4937, "Ġreally": 269, "307": 31998, "Ġvicious": 16339, "Ġgathers": 33025, "ĠChrys": 45763, "048": 40976, "Ġpulled": 2468, "ĠLine": 5562, "ĠAnnual": 7453, "Ġathlet": 45316, "âĵĺ": 49792, "Ġ340": 26227, "Improve": 47302, "tg": 42698, "Ġrestore": 7057, "Allah": 45077, "Ġhapp": 48288, "ithering": 37414, "Ġcompares": 12616, "opers": 18158, "ĠCertification": 36527, "Ġster": 43472, "ĠBoot": 21524, "Ġselect": 5163, "uit": 6439, "Ġtowards": 1567, "231": 29949, "Ġperceptual": 47777, "ĠProfile": 8993, "ĠDj": 8743, "ĠPoker": 34943, "Ġparalysis": 32409, "ĠAdditionally": 6903, "ĠProto": 45914, "582": 38020, "ĠSund": 12282, "ĠJohann": 34688, "Ġ258": 36586, "ĠAdmir": 39206, "Ġpassage": 9078, "Latest": 45409, "ĠAb": 2060, "date": 10672, "iazep": 44589, "ĠReply": 6672, "Ġunman": 43905, "project": 28258, "Ġinterestingly": 40491, "onductor": 13017, "646": 33075, "ĠBicycle": 39965, "Gaza": 45903, "mega": 44238, "éģ": 48583, "Karl": 43397, "Ġrating": 691, "713": 40349, "Ġstage": 1289, "«": 4958, "497": 38143, "Ġtilt": 22136, "tis": 42334, "Ġstitches": 31223, "Ġjihadists": 24504, "Ġgenerosity": 19501, "Ġ2048": 46920, "Light": 31091, "Ġoverturned": 13164, "Ġspoof": 34258, "Ġimmigration": 2447, "ĠLambert": 17489, "Ġvisas": 13570, "Ġ419": 32869, "Ġ___": 2165, "Technology": 38976, "odium": 41310, "Ġfitted": 15898, "wcsstore": 50146, "Ġenjoys": 11952, "Ġindependently": 12672, "Ġcerebral": 30817, "Ġhighest": 1609, "Ġby": 30, "Ġrepo": 27640, "ĠKickstarter": 29202, "itton": 23121, "ovo": 22864, "Ġworth": 966, "files": 42018, "Ġvirt": 36704, "Ã«": 105, "Ġcolumnist": 11711, "Ven": 39043, "bots": 26478, "Ġtourist": 8376, "Ġforemost": 16501, "ĠYose": 45754, "aylor": 28897, "laughs": 36411, "Ġtemplates": 38577, "Ġsymbols": 19830, "Ġhesitation": 28946, "ĠJiu": 45675, "ihadi": 37226, "Ġweapons": 2398, "Ġblasphemy": 33849, "Ġlov": 31180, "ĠJuno": 32821, "Ġteenagers": 10226, "ĠBurk": 18294, "Ġindu": 48452, "ĠCrypt": 28850, "Ġdismantling": 27711, "Ġnipples": 42529, "Component": 48767, "Ġmuster": 27665, "Ġentries": 11410, "Ġdangerously": 24631, "PORT": 20275, "Ġdecisions": 2390, "Ru": 36439, "Ġmosaic": 37886, "Ġsands": 26200, "Ġlia": 38244, "ĠEDITION": 46520, "Ġsprinkle": 37082, "........................": 43353, "553": 39252, "ased": 11835, "Ġstronger": 3651, "Someone": 29375, "Ġdismissal": 14289, "anging": 23786, "ĠGordon": 5613, "ĠRouhani": 17924, "Ġreviewed": 7123, "olk": 14024, "ĠWise": 20984, "amara": 27086, "ĠP": 221, "ĠTroy": 7786, "agement": 19660, "ĠBIG": 17054, "ĠMarty": 20360, "ĠHarley": 17006, "ĠGuinness": 25574, "cons": 10998, "isks": 33240, "Ġheroism": 38047, "PB": 37395, "ĠSpeak": 34403, "Ġhoused": 15740, "ĠSavings": 26244, "ĠWitch": 29085, "Ġauditor": 15279, "Ġsociety": 2313, "ĠXue": 45088, "Ġdressing": 10386, "Ġbackfield": 24924, "unning": 26586, "Ġtaps": 26066, "ĠRequired": 41705, "Ġtube": 16875, "Ġmerits": 20273, "ĠFiles": 36928, "ĠNE": 12462, "ĠVoters": 17646, "ĠWeiner": 29453, "Ġsustaining": 20953, "ĠâĹ": 45050, "vis": 9578, "ĠTyler": 5599, "culture": 27238, "Ġstaples": 25919, "Insert": 48386, "Ġnearest": 14712, "gener": 20557, "Ġidol": 23390, "Ġtooltip": 49586, "xt": 11483, "Ġhas": 34, "Device": 47580, "Ġyoutube": 44736, "oard": 37021, "Ġnormalized": 35247, "Ġnews": 340, "apes": 22179, "Ġpsychologically": 34209, "262": 29630, "Ġslow": 2635, "Ble": 40370, "Ġjuveniles": 28320, "edom": 45556, "Ġrecovery": 2752, "repeat": 47418, "Ġscaff": 35737, "unia": 46472, "Ġinconsistency": 36849, "4": 306, "Ġkept": 1682, "Ġfilibuster": 33109, "Ġfirefighter": 15788, "ĠConstitution": 5879, "ĠPapers": 28735, "Ġaffidavit": 12753, "ĠLimits": 39934, "product": 20565, "Either": 40671, "Ġdyn": 38481, "Ġstone": 7326, "FIN": 25623, "ĠArk": 19365, "ĠBout": 23207, "Ġpreserved": 18772, "Ġshines": 28159, "Ġ({": 49698, "Ġroll": 3825, "ĠNationwide": 27812, "madeupword0001": 50262, "Ġutter": 18672, "11": 1225, "Ġcoupled": 11531, "card": 6940, "param": 46669, "157": 27489, "ĠBurst": 44749, "Ġlion": 15587, "ĠDeer": 15319, "Ġproductive": 8737, "genic": 44131, "Ġaccelerated": 13072, "ĠGemini": 26577, "Ġcries": 25355, "Ġinstantly": 11764, "Ġdistingu": 48251, "Ġloopholes": 29307, "Ġhunter": 23298, "Ġstarve": 41403, "ë": 45209, "Download": 44514, "ĠJindal": 39520, "Ġviewpoints": 33498, "ĠAxis": 34073, "Ġmotivation": 10563, "ĠESA": 34479, "isation": 3258, "querque": 48973, "rex": 19633, "Ġpassages": 33083, "Ġtacit": 36502, "actly": 45548, "Mary": 24877, "Ġofficial": 781, "ĠShal": 25400, "Ġplaint": 46560, ")].": 49151, "ĠChattanooga": 24743, "Ġrejo": 24586, "ub": 1792, "Ġhundred": 6317, "West": 9634, "Ġfixed": 4460, "Ġpractise": 33136, "ĠElf": 32077, "Ġcrumbling": 27588, "Ġbreast": 6181, "TION": 10263, "Ġbanquet": 28203, "ĠPry": 42831, "Ġcollects": 22671, "azes": 24505, "Ġrestricts": 35931, "Ġsore": 12867, "ĠHardcore": 46206, "ĠLud": 21024, "Ġshredded": 30274, "Mic": 31371, "ĠGujar": 44331, "Ġeb": 35331, "ĠResidential": 21796, "Ġunbelievable": 14011, "Ġbidding": 11754, "âĸ": 48584, "Ġdescribes": 7448, "ond": 2832, "Children": 31008, "i": 118, "ĠTwisted": 44059, "Ġspew": 29400, "cession": 34770, "Ġtwentieth": 41566, "Ġdebates": 14759, "Ġhorsepower": 22325, "Bit": 36918, "Ġcarving": 29776, "reth": 22663, "ires": 7948, "ĠSystem": 5149, "Ġattractive": 6043, "Initialized": 50026, "Seattle": 40718, "Ġblending": 29354, "icides": 31048, "Ġsequencing": 32243, "Ġdisagreements": 24461, "gae": 34211, "âĢ¦]": 48021, "ĠCha": 18606, "ĠCET": 39034, "Ġspearheaded": 23498, "ryn": 32506, "Ġpropriet": 32130, "Ġcurrencies": 7607, "det": 17701, "oslov": 41837, "atra": 15560, "Ġentreprene": 49661, "xon": 43903, "exp": 18793, "ĠHearthstone": 46338, "Ġneighbour": 14915, "ginx": 46842, "ĠUnder": 2096, "ĠCarlos": 6778, "Ġcubic": 15768, "Ġoccurrences": 39036, "ĠGaal": 37805, "wings": 42932, "Ġanchor": 11864, "Ġlured": 25653, "Ġ\"{": 49667, "Ġneeding": 12075, "ĠGarc": 27908, "trip": 30674, "afe": 20120, "\"],\"": 44690, "ĠAnt": 3702, "Ġpresence": 2621, "ĠMadagascar": 33545, "ĠMoff": 24730, "ĠShinra": 49776, "unks": 29201, "ĠRainbow": 22060, "Ġcommend": 19781, "ĠGh": 5977, "facts": 34487, "ĠVegan": 39506, "ities": 2192, "ĠWell": 2647, "ĠG": 272, "ĠGhosts": 42366, "walk": 10097, "table": 14595, "Ġsaw": 794, "arella": 26771, "Ġstrateg": 18506, "html": 6660, "ĠPJ": 28529, "ernaut": 34699, "Ġimpressions": 26328, "ĠWITH": 17345, "Ġprotagonists": 37813, "steamapps": 50023, "Val": 20320, "Ġrecounts": 30765, "atche": 36582, "Ġgenerate": 5368, "ĠCrimes": 21203, "ĠWe": 166, "ges": 5641, "chery": 26154, "ĠAr": 1586, "Ġwashed": 15158, "arkin": 26932, "ĠSuit": 39271, "Ġflash": 7462, "Ġwindows": 6410, "ĠComponent": 43006, "ĠUtt": 31498, "Ġnationwide": 5807, "ĠMarlins": 13107, "ĠShips": 42201, "ĠCindy": 16039, "verbal": 40328, "Ġditch": 16740, "ĠKilling": 31656, "ade": 1829, "ĠCos": 11013, "Ġaster": 44063, "Ġinciting": 30752, "ative": 3693, "Ġunre": 21153, "Ġwatch": 1183, "akuya": 47705, "Ġ299": 35768, "ĠWarcraft": 44037, "Ġcompassion": 14736, "ose": 3876, "vez": 20782, "Ġpromulg": 39957, "Ġcache": 30283, "Ġsearches": 13063, "Ġrobbed": 13266, "Ġincurred": 18982, "Ġextraction": 23226, "ĠPressure": 26324, "iaries": 41608, "Books": 38108, "suits": 36878, "NUM": 46758, "Ġfed": 9789, "ipl": 28076, "ĠSche": 9555, "ĠMD": 8909, "ilipp": 33465, "Ġtoes": 21565, "Ġheel": 19728, "pter": 43744, "Ġquake": 15015, "Ġslowed": 9546, "Ġagre": 48425, "ĠAnderson": 3452, "ĠRid": 21721, "Before": 17206, "ashes": 14829, "Ġsr": 36469, "ilk": 32832, "aha": 11695, "Ġhateful": 26393, "Ġearthquake": 8969, "ĠAsset": 6571, "ĠGill": 6452, "Ġcontrad": 48318, "ĠJacob": 5747, "ĠPeer": 35688, "caps": 25879, "Ġwhatever": 3046, "OGR": 41716, "Ġdrain": 15160, "Ġstatistically": 27697, "Ġholog": 35029, "544": 38944, "Ġfemin": 39334, "Ġsenators": 7028, "7": 406, "Inter": 26267, "ĠAwakens": 34833, "ĠWan": 18015, "ĠNonetheless": 19135, "Ġcz": 25198, "Land": 26902, "Ca": 38593, "Ġdecreases": 27430, "Ġdairy": 9616, "Ġwhole": 1086, "ĠApps": 29324, "doc": 37447, "ĠKlaus": 29134, "Georgia": 39331, "MH": 38092, "ĠRaise": 39208, "uced": 33862, "crime": 18608, "Ġinvoke": 32550, "Ġ1896": 42773, "ĠKlu": 28541, "your": 16625, "Ġ287": 36286, "ĠFar": 4256, "dream": 24009, "Ġelectro": 29541, "Ġdiscusses": 14524, "Ġgrievance": 32304, "veyard": 48514, "Ġsay": 224, "999": 16692, "ĠUltron": 45854, "Ġmarrow": 33765, "enton": 14492, "ĠLinkedIn": 6582, "ĠSniper": 44810, "uras": 33323, "cow": 31645, "Ġdos": 9958, "1979": 43768, "Less": 38294, "Point": 20416, "ĠDelay": 44137, "DX": 40190, "Ġspilling": 31537, "OTUS": 24678, "licts": 43307, "Ġquaint": 36579, "Ġexponent": 47195, "Ġstimulus": 8931, "Ġoh": 14223, "Ġint": 6979, "court": 8953, "Ġcrou": 39623, "Ġyield": 3363, "ĠRegions": 18647, "Ġredirect": 30970, "world": 8331, "ĠMistress": 46943, "Ġendless": 12210, "Ġsushi": 28287, "Ġbask": 43736, "Ġissues": 743, "Ġapproved": 2033, "Ġresin": 36096, "645": 33611, "Ġlast": 94, "odes": 19160, "arger": 28186, "\":[": 33525, "Ġrevealed": 1487, "rows": 13415, "Ġbragging": 29172, "Ġviolates": 20312, "ĠAether": 48912, "Ġmater": 25327, "Ġ-": 111, "Ġmother": 985, "ĠAntar": 48120, "Ġvaccinations": 32509, "ĠPatel": 12717, "much": 28431, "Ġspinal": 21431, "fights": 43557, "Ġarchitecture": 9437, "Ġ560": 36222, "ĠNI": 17378, "Ġpatio": 20835, "rible": 24786, "Resource": 47279, "hibit": 45529, "Ġcigarette": 16596, "udo": 23259, "ĠOlive": 17925, "Crystal": 42904, "ĠFang": 30544, "Ġliked": 6640, "zh": 13808, "354": 34615, "gewater": 43208, "Ġsecretive": 27174, "akening": 44829, "imore": 28545, "ĠAutumn": 26869, "ĠMai": 22068, "Ġunsub": 26631, "ĠPage": 7086, "oki": 28439, "Ġarming": 31513, "Ġhorrendous": 29577, "Ġmistress": 38293, "ĠStrange": 18680, "ĠER": 13895, "ĠPurch": 26959, "ĠSpace": 5374, "ĠMother": 8133, "Ġjan": 10408, "inations": 17808, "ĠFresno": 18084, "Ġarmed": 3234, "idated": 31965, "ĠNewtown": 27582, "Ġredef": 28557, "Ġfilled": 3820, "abis": 28261, "ASED": 43241, "ĠAry": 30058, "sych": 44652, "Ġresume": 6654, "gm": 41502, "Ġseeming": 29626, "milo": 49427, "ĠMasquerade": 46967, "Ġfry": 25950, "MC": 6018, "Ġrightly": 19765, "Ġrarity": 33984, "ĠSlater": 20221, "å¥³": 49583, "Ġroses": 25612, "ĠEmpires": 47468, "ww": 33130, "ilies": 28694, "Ġliner": 27664, "Ġshoppers": 9456, "Ġtimeline": 10589, "ĠHeight": 37099, "Ġfestive": 12298, "ĠPitch": 24902, "Ġrestrict": 14058, "Updated": 37973, "ĠIranians": 23571, "ĠWebsite": 17595, "ĠShame": 33789, "Ġgreeted": 13029, "neum": 45042, "443": 35741, "RD": 34158, "APTER": 47532, "plates": 40560, "Ġtom": 23681, "ĠArri": 14498, "Contribut": 47222, "St": 5320, "ĠOhio": 2042, "ĠDebate": 36743, "Ġdysph": 44153, "Ġyears": 107, "esame": 27476, "ĠExodus": 42750, "waves": 22424, "requency": 48249, "ãģķ": 49173, "erie": 23834, "Ġfourteen": 31925, "Ġcertainly": 1819, "Ġseals": 28707, "abwe": 46938, "Ġoffend": 34563, "ĠDevi": 35120, "Ġtransferring": 19116, "ling": 1527, "osh": 5212, "PUT": 42030, "Ġmedia": 433, "rec": 13139, "ign": 4932, "ĠPhysical": 23831, "Ġforearm": 30357, "Ġpunished": 14459, "ĠDur": 7925, "Ġinsightful": 29804, "Ġdam": 9656, "yden": 30330, "forestation": 45317, "Ġaerospace": 15064, "roleum": 47004, "Ġapplauded": 19833, "Ġjurisd": 44697, "warming": 26016, "237": 30069, "istas": 19679, "Ġic": 41591, "ules": 17773, "ĠExactly": 31804, "ĠTall": 12388, "got": 22371, "Ġedges": 15716, "Ġmetro": 12716, "Ġenlarg": 40754, "itored": 45543, "limited": 27829, "ĠÂ§": 39207, "Ġrelocated": 18899, "Ġtempered": 31380, "Ġunintended": 26364, "IDE": 14645, "makers": 6040, "ĠWhis": 27199, "ATURES": 46158, "oÄŁan": 38989, "rations": 27748, "Ġmarriage": 3397, "Ġillustrates": 24130, "Ġdominion": 46430, "Ġthreats": 3455, "Weather": 29840, "ĠMatter": 18181, "Ġginger": 19863, "Ġgained": 3491, "ĠCoordinator": 19602, "ĠGators": 24978, "ĠInquiry": 29760, "ĠPurpose": 33482, "Ġprerequisite": 39364, "Ġstranded": 13202, "Ġlacking": 12622, "Ġbleak": 23530, "IK": 20458, "Ġassist": 3991, "Ġbarracks": 33217, "normal": 21113, "lys": 32142, "uto": 11207, "Ġpim": 39148, "ĠGroup": 826, "ĠConsequently": 25613, "ĠSummit": 7271, "uations": 10184, "ĠVictory": 15908, "estinal": 49096, "change": 14035, "ãģĮ": 48538, "Ġ124": 19446, "Ġuniformly": 41919, "ĠPrincipal": 13619, "Ġmix": 3344, "Pool": 27262, "ĠBav": 22662, "istries": 28463, "ĠDelete": 45777, "pressed": 36591, "Ġshaman": 46167, "ĠRather": 9752, "ĠMatth": 25184, "Ġapproves": 28634, "Ġjumps": 13855, "Snap": 41513, "Ġmillenn": 49664, "Ġregimes": 25549, "ĠRunner": 24036, "Ġdistraught": 30719, "Ġinterstellar": 43240, "stan": 22398, "QUIRE": 47091, "Ġsuitcase": 28441, "Ġcompensation": 4660, "ĠRome": 8947, "reader": 40536, "Ġcolorful": 14128, "ãĤĮ": 48916, "ĠFunny": 31906, ",'\"": 10076, "Ġmining": 4481, "met": 5646, "ĠLAST": 32803, "ĠRNC": 36351, "Ġdeficit": 3781, "Ġpayable": 21467, "Grade": 43777, "ĠJill": 12893, "ĠOccasionally": 38998, "andel": 25849, "Ġbasin": 23678, "ĠAsians": 28800, "Ġyog": 43224, "From": 7605, "Ġwidth": 22523, "Ġpunct": 15760, "rosse": 19844, "ICAL": 24308, "ĠTroll": 37873, "Tuesday": 25464, "Ġmiraculous": 35821, "ãĢĳ": 49287, "Ġaffairs": 5185, "78": 5479, "//": 42326, "ĠFrankie": 23447, "Ph": 17297, "clave": 38121, "kef": 47915, "Ġobj": 26907, "ĠMagnet": 36102, "Ġcontempt": 16176, "rition": 46956, "Ġrecruit": 9584, "levision": 41605, "standing": 8190, "Ġorganizer": 18299, "Ġincapac": 37195, "atial": 37438, "upon": 32630, "NY": 9873, "president": 10443, "ĠPir": 21299, "balls": 21849, "Ġ289": 39613, "ĠMining": 13289, "ĠChomsky": 46179, "ĠFormation": 42449, "UK": 10494, "stery": 34821, "!--": 48546, "Ã¸": 14562, "ĠGuerrero": 23212, "Ġuniquely": 21085, "orage": 46293, "Ġfossils": 34642, "ratulations": 48198, "779": 38759, "BALL": 22572, "sec": 8584, "ĠLia": 27162, "Ġholiest": 42520, "Bey": 40401, "âĢĶâĢĶâĢĶâĢĶâĢĶâĢĶâĢĶâĢĶ": 45610, "Ġprejudice": 21852, "adi": 5416, "Fight": 40520, "Ġsoutheast": 10171, "ke": 1071, "Ġpractitioners": 21492, "aith": 22724, "ĠQC": 24703, "ĠWilmington": 16971, "ĠTe": 2941, "ĠÂ°": 33397, "orget": 46384, "aler": 29170, "ĠSick": 29385, "Ġbatted": 21622, "Ġvib": 23338, "ĠWii": 33500, "Ġsoldier": 9716, "Ġdomination": 27838, "Ġcreativity": 11140, "Ġfinalized": 16449, "Ġtradition": 5589, "ĠDigital": 6282, "ĠReduction": 34895, "loading": 25547, "Ġreminders": 27803, "Ġguide": 4704, "Ġdo": 109, "ĠUE": 37084, "Ġcontin": 39077, "amar": 21216, "Running": 42900, "ĠJewel": 24284, "æ°": 48570, "ĠMak": 8958, "Ġsession": 1852, "Ġconstit": 35293, "Ġineligible": 26256, "MEN": 42717, "Ġboost": 2501, "%.": 2153, "Ġanonymously": 20797, "iling": 7022, "ĠVentura": 14440, "ctions": 16849, "Ġbrisk": 23667, "cyclop": 47495, "Ġtimetable": 17777, "iasco": 47337, "Ġviolations": 6165, "forest": 28236, "PsyNetMessage": 50160, "ĠNemesis": 47704, "Ġsett": 34491, "Ġpaying": 2746, "Ġ315": 29534, "YD": 38237, "á¸": 48934, "Ġfounding": 10150, "Qaida": 28448, "Ġimperialism": 41426, "iox": 44882, "ĠOriginally": 19355, "Ġproport": 49438, "ĠSara": 11686, "Ġequivalent": 6305, "Ġdegradation": 30223, "ĠThey": 252, "ĠFul": 11193, "Ġintake": 14797, "andal": 17856, "Ġexploration": 6942, "ĠEMS": 19997, "Ġbring": 836, "ovable": 30289, "Ġsugar": 4696, "Ott": 41691, "Ġquestioned": 5249, "Ġdetachment": 36119, "Ġamusing": 31236, "Ġparser": 48946, "Ġpresumption": 37163, "ĠQual": 13559, "Ġlightweight": 13719, "Ġchemical": 4747, "Ġfilm": 822, "Ġbut": 53, "ĠBetween": 10414, "Ġbattalion": 35374, "Ġbroadcasting": 16687, "Ġphysi": 35050, "ĠKhe": 41718, "ror": 21929, "ĠBrendan": 13015, "Ġalarming": 16156, "ally": 2368, "IDES": 42635, "###": 48134, "Ġunsett": 30933, "VERTISEMENT": 11664, "ĠCalling": 24178, "Ġvoters": 1983, "Ġwood": 5627, "Ġbitters": 28609, "ĠHogwarts": 42210, "ĠLear": 25885, "Ġstrides": 19459, "Ġfucking": 23523, "Mar": 10169, "Ġresponds": 17904, "rd": 2586, "arlane": 33230, "ĠPercent": 39932, "ĠGrenade": 47923, "arcer": 45734, "ĠMour": 35955, "Ġestimates": 2785, "Ġdiscomfort": 19535, "SOURCE": 48560, "ĠCold": 7810, "ĠFowler": 13679, "ĠGins": 25493, "Ġrig": 10727, "ĠDing": 27385, "Ġ1953": 23443, "Ġfigure": 1955, "Ġphot": 17190, "ĠAgg": 14644, "Ġupsetting": 24481, "Ġpsych": 21968, "........": 42514, "ý": 50105, "xious": 39024, "Ġvitri": 37417, "Ġsupporter": 9906, "Iowa": 36160, "Sus": 36915, "ĠMast": 23190, "amba": 14996, "ĠTigers": 5098, "Ġvill": 17676, "ĠSisters": 22316, "ĠAmit": 16841, "Art": 23295, "Ġpulmonary": 34049, "Ġ[[": 48395, "RAW": 36880, "Ġtrait": 28794, "#$#$": 50065, "ĠLooks": 26646, "Ġ+---": 50031, "Ġemploys": 13774, "alla": 13421, "hardt": 15553, "uttered": 35758, "312": 29930, "Ġadoption": 7206, "Ġslay": 33044, "Ġambiguous": 33406, "case": 11173, "onsequ": 37347, "ĠAWS": 26177, "ebted": 46424, "Ġcloth": 21543, "ĠSUM": 29214, "ĠDisney": 4672, "ancer": 20126, "ĠDriver": 16870, "ĠVenezuel": 28148, "Occup": 46066, "oug": 13098, "ovan": 22015, "marked": 18584, "ĠChristie": 10647, "adjusted": 25350, "ĠPixie": 43579, "Ġnighttime": 32228, "Average": 46315, "Ġgarbage": 11671, "ĠVampire": 39119, "unctions": 36006, "angered": 34979, "Ġaccusation": 17984, "Ġcirc": 27884, "Ġwheat": 10332, "ĠSkydragon": 50040, "reet": 14081, "Ġnavigating": 24662, "Ġvoluntary": 11659, "Ġdye": 31800, "Change": 36657, "mma": 35221, "è": 36484, "Ġamnesty": 23306, "Ġforeground": 39299, "Ġinfluence": 2712, "ĠLCS": 43109, "Govern": 22469, "Ġintensified": 17757, "Ġunique": 2216, "Ġtangible": 16753, "ĠPalestinian": 5791, "ĠCrusher": 47844, "ĠPlains": 17354, "ĠRGB": 38523, "ĠWoman": 9117, "ĠShutterstock": 24218, "short": 20263, "Ġportrayal": 22910, "Ġextract": 14660, "ĠIDF": 32621, "Ġ399": 41279, "Ġcourts": 4354, "ĠQB": 8886, "Ġparity": 25489, "Ġmaybe": 2085, "Ġinverse": 42075, "Ġ361": 41765, "ĠCham": 15701, "Ġaware": 2542, "Such": 27331, "Ġcasualties": 12675, "ĠBride": 37992, "Ġanecdotal": 38104, "ĠLake": 1777, "ĠChance": 6101, "Ġneg": 15183, "64": 4027, "269": 31416, "ĠGenerator": 44750, "Ġupholding": 29775, "ĠBooks": 16206, "ĠFlowers": 20077, "Middle": 39175, "fty": 44106, "ependence": 41575, "Salt": 44095, "ĠStella": 21159, "ĠIntermediate": 22167, "ĠBlink": 39897, "Ġistg": 49913, "Ġstubborn": 20476, "ĠDidn": 31940, "Ġinfect": 27802, "editor": 32636, "alore": 45013, "Ġfluctuations": 22798, "Ġkay": 17176, "Ġexcludes": 26807, "assment": 34145, "adena": 42728, "ĠGST": 14162, "CLASSIFIED": 49887, "Ġmillennials": 15100, "ĠEdited": 34525, "ĠObject": 35671, "Ġrap": 11619, "ine": 833, "mother": 19456, "Ġdefences": 30356, "desktop": 47912, "âĢĭâĢĭ": 36387, "ateur": 33102, "lights": 20888, "Ġbullet": 8894, "Ġpaths": 14561, "affle": 15442, "ĠKal": 5507, "Ġcoff": 32718, "Mult": 45287, "Ġignor": 45513, "ĠAvailability": 36540, "Amount": 48302, "ĠDracula": 43433, "weak": 25785, "SK": 17342, "Ġtrustworthy": 32101, ".#": 36917, "ns": 6852, "Ġdiscard": 37952, "arded": 16230, "ern": 3281, "Ġalgebra": 45429, "Ġanim": 23727, "ellig": 37448, "ealous": 30783, "Ġsocio": 20182, "walker": 42320, "Ġmachinery": 13922, "Ġtemperament": 33419, "ĠAlb": 16486, "ĠTwitch": 31190, "Ġ390": 35058, "ĠMalaysia": 5697, "ĠPr": 2869, "Åį": 38183, "Ġhoop": 28381, "Something": 27827, "651": 39060, "ĠPatri": 24835, "killer": 30563, "ati": 3648, "ĠSpokane": 27410, "ĠFatal": 39601, "Ġsilhouette": 33585, "Ġstreet": 2014, "quickShip": 50216, "ĠPalestin": 49141, "ĠOwens": 11922, "ĠWinds": 20357, "iffin": 31570, "ĠNept": 47799, "WW": 20904, "Ġausp": 31045, "Ġmayoral": 24629, "Pac": 35625, "oley": 27485, "ORED": 46818, "Ġoy": 23136, "'.\"": 24992, "umatic": 36777, "Op": 13926, "Ġwhispered": 39217, "Ġverify": 12881, "AGE": 14426, "Ġpolitician": 8676, "ĠHS": 21499, "ĠDesert": 15071, "ini": 2531, "ĠMonument": 23001, "Ġdick": 38594, "Ġfoothold": 28264, "Ġeventually": 2140, "Ġchild": 920, "Educ": 46104, "699": 34024, "ĠWith": 590, "496": 37770, "Ġsublime": 32477, "ĠNDP": 13194, "686": 37289, "ä¸į": 48664, "ĠSora": 46906, "Ġbath": 11824, "ĠNirvana": 42058, "Ġconvent": 43364, "kaya": 26312, "Ġaccount": 1316, "geries": 46381, "dollar": 11447, "Context": 48522, "ĠFather": 9510, "Ġmantra": 23157, "ĠEternity": 45877, "Ġ450": 13411, "lig": 17218, "ĠGold": 2610, "ĠAndersen": 23248, "Ġtheolog": 43562, "Ġinning": 3715, "ĠTos": 17135, "eling": 10244, "ĠConan": 38650, "Ġrestless": 36844, "ĠDems": 27796, "Ġcracks": 17873, "Bytes": 48968, "Ġmar": 4401, "**": 12606, "Ġorth": 25691, "vict": 28923, "âĢĶ": 578, "č": 50121, "igo": 12713, "orbit": 31183, "Ġranges": 16296, "Ġdownhill": 19966, "Ġhumanities": 38915, "Ġallergy": 26465, "Dear": 23314, "ĠKos": 8744, "Urban": 43475, "Rachel": 41415, "Andy": 32743, "uled": 12841, "Ġreun": 10854, "Ġreve": 26911, "ĠZ": 525, "Ġnumber": 346, "ĠDir": 32024, "Coming": 31795, "Ġpelvic": 38346, "Ġlining": 14187, "Ġarchives": 23697, "Ġvegetable": 16090, "hex": 43726, "ĠRemix": 43902, "omers": 27312, "bas": 15609, "Ġbookstore": 33007, "Ġstopped": 2294, "ĠDirection": 29332, "ĠHornets": 15929, "Ġcrowdfunding": 26900, "Ġtechnology": 806, "Ġnaughty": 38384, "Ġengage": 4949, "last": 13751, "ĠHind": 15404, "Äĩ": 4807, "ĠStats": 29232, "Ġrisked": 25892, "rast": 16136, "ĠProf": 6853, "Ġart": 1808, "Ident": 46692, "Ġswing": 7021, "Required": 49068, "ĠPART": 19713, "Ġponies": 41928, "Ġ*.": 49128, "Ġmiscon": 47434, "Ġ1934": 28955, "need": 30484, "Ġcaster": 46882, "ĠSpit": 34423, "Ġdisbanded": 37441, "bn": 6316, "Ġsnowball": 35481, "629": 39681, "Ġfloated": 19387, "Mal": 18764, "oom": 11691, "Ġlive": 697, "Labour": 38664, "cially": 24354, "ĠWing": 11384, "Ġapplying": 9889, "ĠJav": 24942, "ainers": 41912, "Ġcarpet": 7986, "Ġbuilders": 21043, "otation": 35915, "ĠTemp": 40239, "Warren": 41914, "Ġacademics": 16839, "Ġflush": 24841, "ĠEB": 33502, "Ġ1911": 39711, "516": 38960, "ĠHenderson": 8400, "toe": 26383, "Ġtransc": 27472, "Ġexercise": 3325, "ĠJudah": 42212, "ifax": 22119, "Ġwelcome": 2814, "ĠRegistry": 33967, "animous": 43229, "moral": 32661, "boxing": 35687, "Ġfilters": 19214, "Ġdisease": 2199, "587": 38878, "ĠSaud": 29647, "Ġbasement": 12288, "ptic": 24617, "Ġcommunication": 4358, "ĠAlways": 14947, "iano": 5472, "ĠUT": 14019, "ĠEz": 32050, "ĠGym": 13846, "ĠAly": 25550, "ĠEduc": 25823, "Ġspur": 15220, "Ġpav": 21534, "ĠQuit": 41990, "ĠAdren": 40705, "Ġstorms": 7749, "Medium": 46243, "\"}": 48805, "Ġadmit": 8109, "Ġdips": 29686, "imilar": 36692, "Bay": 20861, "490": 30881, "Ġsimulations": 31016, "Ġlegalization": 18426, "Ġindependents": 28893, "_.": 47426, "Playing": 37647, "Ġactivation": 29997, "ĠUbisoft": 36263, "enture": 20537, "65": 3506, "Ġpir": 36287, "ĠStudio": 11523, "ĠManitoba": 14437, "ĠEater": 40538, "MD": 12550, "Ġpumped": 19153, "ĠRenaissance": 19797, "document": 43017, "icle": 11317, "Ġche": 5851, "vol": 13728, "esian": 44871, "ĠTribe": 25323, "ĠPort": 2848, "Ġprincipals": 26047, "ipal": 32483, "log": 12376, "Ġpostal": 22498, "Ġdescended": 22306, "Ġreperc": 47164, "ĠSolitaire": 48090, "Ġobservers": 12136, "Ġefficiently": 14146, "ĠConrad": 24078, "Ġunjust": 20134, "Ġkindness": 15963, "Removed": 49699, "ray": 5022, "quila": 27224, "ĠTray": 39908, "Ġassaulted": 8057, "Ġdoct": 40975, "TIME": 39007, "ĠALS": 31252, "ĠLions": 4574, "ĠHRC": 43204, "âĨĴ": 48552, "ĠJO": 30314, "Mur": 32405, "hor": 13562, "1200": 36643, "Ġnaive": 25672, "ĠunfocusedRange": 50165, "ĵĺ": 49917, "ĠBryan": 7573, "Ġaged": 5180, "ĠBryce": 16077, "AUD": 44741, "edition": 31855, "din": 27228, "Ġcomposition": 15229, "Ġcannot": 1395, "ente": 8530, "Ġsuffered": 2152, "ĠFrankfurt": 14184, "pton": 9216, "assic": 41139, "ĠEssential": 26571, "ossier": 38746, "healthy": 33353, "Ġnucleus": 38531, "secution": 31068, "Ġbanging": 31109, "Ġgloves": 14341, "ĠWeekend": 16520, "Spe": 29235, "Nat": 40676, "ĠCoil": 46312, "Ġhere": 259, "ĠLower": 9978, "Ġtougher": 9319, "Ġfe": 10668, "Ġmischief": 26245, "Ġanarchist": 44771, "ĠApple": 1257, "ĠBrit": 9446, "ĠRuin": 46332, "Ġrevoke": 28192, "ulp": 31777, "Ě": 50134, "Ġparticipants": 3597, "Ġelementary": 10891, "ĠJurassic": 32583, "Ġpassing": 3133, "izing": 2787, "Ġobviously": 3334, "ĠTolkien": 44107, "ĠByrne": 19788, "ĠIncreasing": 21588, "ĠNews": 491, "DES": 40429, "ĠFI": 20027, "Ġdistort": 39841, "cl": 3998, "Ġfucked": 42647, "Ġdetainees": 18984, "ĠApproach": 38370, "White": 15725, "ĠAmb": 8387, "ĠThirty": 19808, "Ġvans": 26148, "Ġphotons": 44239, "Ġdots": 26221, "Ġwitchcraft": 42470, "iamond": 44318, "CSS": 47394, "Ġacronym": 29703, "Ġlips": 14638, "angible": 44321, "ĠHT": 31445, "ĠHermes": 37134, "Ġfell": 1064, "incre": 33008, "Nazis": 33171, "Links": 45603, "Ġcontestant": 19872, "ura": 3851, "Ġstealth": 27026, "Ġins": 7540, "ĠLyft": 18648, "Ġpuck": 9258, "Ġessentials": 28146, "omaly": 47290, "kill": 16424, "Ġhive": 40222, "ĠClair": 26246, "idding": 27346, "Ġbottled": 23874, "ĠBowling": 20225, "}{": 48832, "vd": 40311, "ĠDis": 6310, "olded": 40256, "Ġpractitioner": 29764, "train": 21714, "385": 30042, "ĠBree": 10349, "spe": 18462, "bably": 46363, "INS": 15102, "ĠPW": 33781, "ĠFur": 20376, "ĠLaz": 15619, "Ġdf": 47942, "lishes": 46808, "Ġoverth": 32151, "ĠMalik": 13502, "ĠScore": 14702, "MR": 12642, "Ġmamm": 32751, "Ġpermanently": 13140, "script": 32761, "Ġ)]": 49940, "Ġantip": 37554, "Ġcriminally": 30230, "ĠGillespie": 25418, "Ġdelighted": 7808, "Ġba": 17279, "ĠSenators": 10421, "Ġoccasionally": 10930, "Ġberth": 16471, "Ġteens": 7475, "STAR": 39602, "ĠSwamp": 39235, "inge": 18174, "Ġ230": 16242, "Ġgiveaway": 30385, "ĠTan": 7650, "Grad": 44908, "AAAAAAAA": 48983, "SS": 8108, "ousands": 41290, "ange": 10987, "den": 3898, "Ġtrusted": 10128, "Ġhill": 9910, "lords": 40739, "omic": 30344, "ochond": 46602, "BP": 21792, "Ġconfessions": 39597, "riction": 44896, "ilant": 37682, "dust": 42910, "ĠLadies": 17560, "Ġfearless": 29107, "Ġenough": 615, "Ġrailways": 24396, "Ġcommanded": 30655, "ĠCanucks": 19011, "ĠExpansion": 32408, "ĠTHAT": 24394, "Ġsucceeds": 28121, "ĠISS": 28446, "ĠSchw": 14376, "ĠSal": 2575, "Ġplacebo": 26231, "atana": 45697, "Ġamongst": 9783, "ĠRPM": 40423, "Ġunforgettable": 26865, "ĠISBN": 45730, "Ġfragrance": 30833, "Ġcores": 29829, "Ġordered": 2740, "Ġupstairs": 20806, "rontal": 49397, "Ġsoluble": 45132, "ĠNRA": 15090, "Ġstricter": 20674, "ĠVs": 35327, "ď": 50123, "mopolitan": 30613, "Ġhome": 184, "agara": 45282, "Ġstylish": 14160, "Ġperiod": 675, "ĠEstate": 9730, "Ġcarrying": 3406, "ĠJavier": 20550, "romeda": 49025, "Ġplanning": 1884, "Ġsuck": 23829, "ĠARC": 35975, "ĠExploration": 22949, "artments": 27101, "Ġintervening": 29970, "ĠThat": 280, "Ġranks": 5546, "Ġpoked": 32529, "Ġvom": 23953, "ĠSOC": 29000, "Own": 40839, "Ġfifty": 14865, "ĠPrescott": 16262, "acter": 35995, "Ġargue": 5848, "ĠPyro": 47442, "ĠMermaid": 39861, "ĠDale": 11302, "ä¸": 46015, "Ġdepos": 27649, "Ġtraditionally": 10341, "Ġfont": 28716, "ĠHL": 38690, "Ġrpm": 36461, "Ġagg": 28940, "Ġ328": 37428, "ĠMoose": 26147, "Ġpert": 32819, "min": 4691, "Ġamps": 44938, "roads": 14923, "Ġjobs": 1315, "ĠBench": 14203, "Ġdegener": 27462, "Ö¼": 49105, "Ġpuff": 32322, "ĠJS": 40305, "Ġend": 253, "Chris": 16084, "ENE": 33978, "MY": 25518, "idad": 8843, "worthiness": 26041, "ĠGamer": 45670, "Ġfingertips": 33138, "punk": 29813, "ĠSound": 8479, "25": 1244, "Ġawaiting": 10254, "Ġproportion": 10301, "Ġrewarded": 14986, "ĠErica": 22743, "ĠFoo": 36155, "714": 37901, "Ġattaching": 39484, "isions": 12545, "Ġsufficient": 7719, "ĠAngle": 30098, "ORGE": 38288, "Ġbroker": 8122, "Ġunnecess": 49922, "Ġhunted": 32602, "Ġcou": 15763, "ĠTrade": 4466, "ĠAntarctic": 31769, "Ġcriticised": 9923, "Ġunwelcome": 33552, "Ġhashes": 48231, "Brazil": 31004, "lde": 23966, "Ġ148": 24646, "ĠLSD": 37619, "assembled": 42376, "Ġskelet": 49498, "else": 44617, "Ess": 38469, "Ġpipe": 11397, "ĠFail": 38326, "qualified": 26505, "Ġxen": 26920, "Ġset": 278, "Ġsaid": 26, "ĠMut": 13549, "skip": 46554, "flies": 37085, "designed": 23866, "ĠPeach": 29343, "ĠYanuk": 36479, "Ġabolish": 31165, "Ġsix": 411, "ĠDeity": 49052, "ĠCandidate": 30598, "ĠRobbie": 14763, "osta": 13334, "Ġpets": 10029, "Ġcontentious": 14883, "Ġastroph": 38685, "Ġframeworks": 32480, "Ġ1966": 18069, "ÅĤ": 5173, "Ġdancing": 7950, "Ġravaged": 27828, "Ġview": 1217, "lopp": 47338, "Ġdogma": 43804, "Ġallowing": 2455, "andi": 17849, "velength": 47740, "casts": 25303, "Ġprosecutor": 5644, "esthesia": 43729, "Static": 48927, "raits": 43182, "Ġnig": 44831, "886": 40294, "Ġcyclist": 24702, "ceived": 31597, "ĠTexture": 46869, "ĠHaf": 24256, "ĠHar": 2482, "Media": 18801, "ĠIssues": 28827, "ĠBooster": 43996, "Ġlaunchers": 38697, "Personal": 43854, "Ġwithheld": 22292, "ĠMonroe": 12885, "ĠEVENTS": 44094, "Brad": 31632, "ellect": 45255, "Ġrebate": 31949, "Ġclaiming": 4564, "CHECK": 48692, "RY": 16802, "Ġabuses": 13052, "MAT": 41229, "iw": 10432, "ĠRacer": 43314, "strength": 33687, "chu": 39037, "Ġformidable": 18213, "Ġcontemporaries": 38961, "Ġhollow": 26395, "tops": 27569, "Ġmotivations": 30337, "Ġanymore": 5988, "iculture": 31685, "Ġdocuments": 2339, "Ġhull": 31594, "Ġlinking": 14135, "launch": 37757, "ĠBen": 1664, "Ġhandc": 42149, "ĠRO": 10033, "Topic": 48931, "ocks": 6368, "ĠElena": 24816, "ĠSugar": 12896, "ĠTent": 39052, "TAG": 46985, "ĠUEFA": 15082, "ĠDil": 14205, "Ġpublishing": 10467, "Ġrevolves": 29769, "ĠBourbon": 36115, "Ġupgraded": 7084, "Ġvariety": 3143, "lee": 7445, "Ġembedded": 14224, "dor": 32649, "Ġ368": 42100, "Ġbusinessmen": 20658, "Ġcompelled": 19411, "Ġglance": 18969, "Ġreq": 48829, "ĠLyme": 32250, "Ġforging": 29394, "Carter": 43732, "Ġobsessive": 36003, "Ġinstrumental": 14123, "Ġrefill": 40453, "ibaba": 44345, "Ġclerics": 35627, "ĠLat": 9882, "ĠMissing": 23632, "Ġblaming": 15249, "Ġdict": 28700, "Ġsourcing": 24547, "notice": 44264, "agna": 33281, "Ġobser": 49072, "Ġgeek": 36251, "/.": 11665, "andra": 19432, "Ġconsecutive": 3396, "Ġwill": 40, "ĠMaher": 23155, "gment": 10757, "ĠUr": 9163, "Ġfiscal": 2358, "Ġ66": 5138, "Ġnull": 23796, "Ġtheater": 7364, "Ġcautiously": 27225, "Ġnon": 786, "Ġcrept": 34958, "Ġ04": 14722, "Ġundefeated": 15088, "to": 560, "Ġapocalyptic": 39285, "Ġexecutives": 4585, "te": 859, "ĠOffic": 37068, "Ġcaf": 39779, "ire": 1885, "ĠStation": 5088, "ĠKinect": 44655, "ANGE": 27917, "action": 10845, "ĠJerusalem": 7007, "arily": 19048, "Ġpropensity": 36186, "orest": 45991, "ĠFacilities": 33262, "man": 397, "Ġadject": 45272, "Ġinfer": 40182, "ĠRae": 23013, "ĠMPEG": 47776, "ĠGolden": 3274, "Ġemblem": 29551, "Ġrecons": 42415, "ĠTunisia": 17371, "Ġingested": 39840, "Scott": 22041, "Ġgrim": 17081, "BO": 7997, "mint": 30732, "ĠProtection": 5922, "Ġcoronary": 35462, "cgi": 47753, "Ġcounties": 5642, "Amy": 38646, "onia": 15402, "ios": 4544, "Ġ337": 36205, "Ġarrival": 5237, "ĠRoots": 31475, "Ġsuperheroes": 32254, "pedia": 47745, "ĠAp": 8712, "================================": 49774, "Ġregulators": 5904, "Ġcryst": 49875, "sle": 37945, "Ġgelatin": 44496, "706": 34993, "umbs": 29123, "33": 3103, "redict": 39733, "ĠConduct": 20538, "Ġresisted": 18993, "Ġsir": 21958, "Ġcontemplation": 44072, "gan": 3494, "ĠAhmad": 12153, "ĠBelfast": 14837, "Ġdaemon": 48448, "vector": 48219, "ĠBou": 11612, "bitcoin": 47197, "ĠAbraham": 13717, "birth": 33272, "hani": 36424, "formed": 10312, "Ġunexpected": 7152, "ita": 3119, "ĠRooney": 14769, "Ġdemocratically": 35595, "ĠExplos": 35936, "Ġaround": 198, "Winged": 49327, "Ġ1939": 28234, "Ġinstalling": 15602, "Ġclubhouse": 21173, "borough": 8046, "enstein": 27574, "Ġtherape": 34706, "Ġlockdown": 23076, "undo": 20870, "LOG": 45403, "ĠHass": 27542, "autions": 47138, "ĠPOL": 22808, "Ġpadding": 39723, "Ġefficient": 5693, "Ġtodd": 46736, "contin": 27887, "ĠTriumph": 34839, "Ġcommuting": 33039, "Ġlovely": 9869, "ĠProposition": 27135, "Ġassertions": 29947, "¯": 10965, "irmation": 39490, "Ġgiven": 576, "ĠHelsinki": 23253, "8000": 42412, "While": 5771, "Ġstrive": 15407, "tar": 11404, "umping": 14672, "Ġdepartments": 6522, "ĠShap": 35069, "ĠTube": 35772, "among": 31636, "ento": 28594, "Ġsqueezed": 21654, "Ġrespir": 44266, "Ġnominated": 7076, "Ġcob": 15618, "ĠYellowstone": 30153, "Ġhabit": 10870, "Ġthriving": 16228, "Ġnucle": 38898, "naissance": 48580, "ĠFill": 24691, "Ġremove": 3438, "Character": 48116, "ĠSB": 13944, "Ġpromotion": 6174, "ĠMF": 32671, "ĠGlory": 30402, "ĠTibetan": 34810, "itles": 46913, "Ġsits": 6476, "ĠMTV": 16510, "ĠViolet": 31310, "reporting": 37285, "Ġvents": 35002, "ousse": 29955, "posted": 43196, "Ġblatantly": 35519, ",": 6, "Ġreincarn": 43792, "Ġhappy": 1372, "ĠHeavy": 11927, "Ġmostly": 2260, "Ġsunk": 21168, "Ġhitting": 3022, "ĠConfeder": 35091, "Ġtextual": 46478, "Ġintimidation": 18438, "ĠIsland": 2376, "whether": 29676, "Ġabnormal": 27034, "Regardless": 38861, "ĠStru": 31885, "ĠEisenhower": 31037, "Ġscholarship": 10560, "ĠVotes": 39347, "Ġobtain": 6925, "markets": 12829, "ĠPlaintiff": 39920, "Ġammonia": 38219, "''.": 41667, "Ġexplores": 17384, "Ġgarments": 30625, "ĠPLAY": 18453, "udicrous": 47400, "Pat": 18276, "ĠCousins": 13381, "Ġinconsist": 47509, "Ġemerges": 23694, "Reward": 48517, "ĠZhao": 34219, "Ġallocate": 25915, "ĠRaven": 22546, "MAX": 30187, "woman": 7760, "Ġwart": 44727, "Ġfamilies": 1232, "Ġovere": 39919, "Ġgraphics": 12774, "sama": 48883, "ĠEcology": 35398, "Ġ379": 41946, "ĠPCB": 29627, "/$": 33137, "Ġpaycheck": 24288, "Ġdesk": 8429, "ĠSYSTEM": 43221, "Ġvehement": 45373, "Ġ25": 564, "Ġflowed": 28601, "XXX": 47980, "ĠShogun": 46919, "Ġ:(": 46225, "Ġsidx": 50043, "dir": 41292, "Ġnovels": 19405, "ĠNano": 32487, "Ġincest": 40112, "winning": 5189, "ĠExplain": 44109, "ĠPatient": 27690, "ertodd": 50030, "Ġopp": 27906, "Ġpeanut": 22189, "iate": 10599, "ĠCourtesy": 10093, "Ġreckoning": 31423, "aki": 7387, "ularity": 42664, "Trump": 7565, "Ġreferees": 23811, "Ġaccurate": 6030, "runners": 22651, "Ġ666": 42206, "Ġdarts": 39404, "Ġsalsa": 33367, "ĠParliamentary": 21879, "assad": 44642, "ĠChic": 25334, "968": 41258, "ĠMSM": 43596, "Ġtroubles": 13656, "Ġ288": 35395, "Ġlevied": 28486, "÷": 50099, "ĠEsc": 11274, "chuk": 20756, "Ġ(=": 48004, "Ġconstructive": 17915, "responsible": 37581, "raise": 40919, "recated": 48995, "Ġfracturing": 34905, "ĠSU": 9557, "Ġmainstream": 7302, "Ġintimid": 46198, "ĠTesting": 25980, "Ġvaccination": 21911, "ĠDating": 35968, "ĠColon": 23407, "Ġpopping": 20220, "Ġlisted": 3147, "boro": 9195, "Ġperfection": 19858, "Ġfeels": 2653, "ĠEnabled": 46996, "hift": 46853, "Ġpatiently": 30727, "Ġcoaster": 28910, "Ġvow": 27578, "ĠVor": 22515, "ĠSomething": 13676, "ĠRico": 6511, "Ġproducers": 4426, "ĠCDs": 32570, "Ġintelligence": 2316, "ĠOscars": 15300, "Ġretract": 31914, "veh": 17855, "ĠMayo": 16951, "Clinton": 36206, "edience": 46946, "683": 39062, "Ġt": 326, "ĠAvalanche": 22996, "Ġacknowledgement": 32068, "Based": 20930, "ĠWithout": 6830, "Examples": 48684, "Ġplugin": 43201, "Ġthorn": 28869, "ĠSh": 840, "ĠParamount": 22299, "Ġ465": 40525, "ĠWalk": 9693, "ĠDreams": 26843, "Ġplayback": 20083, "Ġboasting": 24764, "Ġeditorial": 8161, "Ġborrower": 31545, "âĸ¬": 49906, "Ring": 41957, "@": 1039, "Ġadventurers": 45583, "Ġkid": 4607, "ORY": 26116, "Ġlaundering": 12503, "LIB": 46690, "juries": 30832, "Ġtechn": 23839, "Ġevaluating": 15190, "missions": 23363, "Ġgadgets": 21485, "Ġsh": 1481, "ĠBit": 15547, "Ġcircumvent": 29487, "Ġtroublesome": 34056, "Ġsumm": 32933, "forcement": 46637, "Ġgrouped": 38015, "Ġradiant": 35787, "Ġaura": 34705, "ilege": 44210, "Ġdangling": 34952, "Ġ309": 36402, "Ġthereafter": 17998, "Ġsneakers": 18971, "ĠRodriguez": 7288, "Ġbit": 828, "Ġapprox": 36612, "Ġ321": 36219, "ĠThousands": 12233, "ĠYiannopoulos": 34861, "Ġderogatory": 30971, "Layout": 49415, "------------------------": 46580, "Ġfootwear": 19819, "Ġext": 8935, "brush": 30241, "ĠMarie": 9340, "Ġhelpless": 22445, "ĠPetr": 27239, "Ġpurchasing": 4906, "Ġtermination": 17829, "Ġstrategies": 4964, "().": 49123, "ĠSimone": 22751, "LEY": 17945, "tail": 17624, "otics": 28112, "Ġdebris": 8824, "Ġnano": 36924, "Ġunison": 38280, "ocial": 35646, "restricted": 42751, "ĠCont": 7555, "ĠF": 274, "ĠPed": 10829, "Ġmimic": 26361, "Ġvariables": 25083, "ĠMisc": 40135, "Ġclarified": 18135, "ĠMass": 5370, "Ġvalidity": 25295, "ĠCasting": 40990, "Ġvoic": 30118, "Ġonion": 19543, "Ġpurely": 15430, "ĠONLY": 35669, "Ġtutorials": 38892, "ĠDS": 22338, "Ġsubsection": 45845, "Ġingenuity": 37147, "emark": 37088, "dimensional": 23944, "Ġexponentially": 30413, "bars": 38493, "Ġinjury": 1356, "ests": 10092, "Ġfluct": 22263, "contained": 40157, "ennis": 28828, "Ġneuroscience": 38379, "ĠGoddard": 32603, "ĠRIGHT": 38103, "inges": 29870, "Ġconfiscated": 24910, "Ġoutputs": 39512, "ĠPo": 6002, "ĠRa": 4833, "]": 742, "Ġwitty": 33228, "eworld": 44437, "XXXX": 48193, "ĠTB": 19009, "Ġflavor": 12117, "Ġdisagreed": 19286, "Republican": 33364, "established": 22234, "Ġgrowing": 1197, "Ġinspire": 9769, "usr": 45568, "Ġbeginning": 1786, "illy": 10758, "ĠLarry": 6045, "Ġerosion": 19407, "Ġcomr": 49616, "Ġmalicious": 15237, "ĠBerk": 26042, "ĠMustang": 23103, "depending": 43548, "all": 1250, "Ġgeo": 32816, "Ġyou": 47, "Ġpriceless": 33292, "Easy": 43361, "Ġj": 1236, "Ġpoorest": 19125, "Ġpeace": 1987, "Ġ@": 787, "Ġousted": 14716, "urances": 40406, "xe": 42336, "IB": 8863, "oops": 37843, "oodoo": 40392, "Ga": 32675, "Ġsubstitute": 10268, "Ġlawyer": 2470, "Ġsever": 20242, "ĠCowboys": 6446, "Ġopposing": 9375, "plain": 21306, "Ġinco": 41528, "Ġscreams": 26776, "Ġstructured": 16697, "pox": 40682, "tesy": 44594, "Ġrog": 45812, "ĠRu": 10318, "Ġquoted": 5304, "March": 11770, "ĠNerd": 39160, "Ġstatist": 45747, "Ġjurisdiction": 10542, "Ġhats": 15146, "Ġcoal": 4051, "Ġsunset": 18820, "ritz": 25656, "Ġconventional": 9164, "ulated": 12944, "ĠTry": 11087, "abor": 15313, "Ġrates": 1162, "arch": 13161, "Ġplane": 3286, "aband": 31865, "urrence": 30904, "Ġsandwic": 38135, "Ġgrit": 24299, "expl": 23242, "Ġourselves": 4288, "Ġmoistur": 29030, "get": 6460, "ĠABE": 48602, "Ġaforementioned": 15785, "Ġplac": 15155, "angular": 46482, "Ġmalnutrition": 29638, "Ġpopularity": 7347, "Ġstunt": 16391, "wig": 27328, "iere": 14116, "Ur": 38046, "Ġsuburb": 11906, "anism": 47838, "ints": 28954, "ĠMarin": 17700, "ĠAgainst": 9174, "ĠCook": 4350, "washing": 36230, "Ġrealms": 41653, "ombat": 45204, "ĠTitanic": 33368, "Ġbrilliance": 28505, "ĠJapanese": 2898, "icans": 37260, "ĠHP": 13064, "ĠNicol": 24947, "ohn": 17648, "apult": 46596, "super": 16101, "Ġvibe": 16464, "thinkable": 47250, "Ġposterior": 41834, "olated": 39308, "Ġunse": 17851, "ĠPilot": 22231, "õ": 50097, "Ġthereto": 44482, "Prosecutors": 44693, "Ġerase": 24300, "ensis": 45353, "ĠRanking": 31563, "Ġhallway": 22097, "Ġtherefore": 3891, "ĠIN": 2808, "ĠZombie": 40751, "Eventually": 42280, "ĠLabrador": 26882, "Ġobjects": 8720, "ĠMB": 17025, "earcher": 42723, "Ġfurthermore": 43681, "767": 38504, "wan": 6531, "Ġdatabases": 22578, "Said": 47117, "ĠNearly": 9221, "ĠPalm": 7929, "~~~~~~~~": 49364, "Applic": 47997, "ĠSTART": 33714, "Method": 47967, "Ġinstitutions": 3353, "Duration": 49404, "Trade": 35996, "Ġempowering": 18503, "ĠHighland": 16477, "Ġserum": 38994, "hire": 6867, "ocytes": 44601, "Ġconfession": 23599, "ampires": 47130, "ĠChavez": 14916, "Technical": 43997, "Ġmasks": 17683, "ĠMinistry": 2803, "Ġdistraction": 17447, "had": 12186, "Ġamy": 45024, "Ġtraveller": 39496, "Ġcameo": 26000, "ForgeModLoader": 50156, "ĠCosmos": 42508, "Weapon": 48971, "Ġrefined": 15616, "Ġfemales": 16856, "Ġsurrender": 13446, "Ġwanting": 6923, "Ġcancel": 10061, "Ġunfocused": 47306, "ides": 4376, "Ġsensing": 29720, "ĠPunch": 29429, "ĠBOOK": 39854, "Ġbureaucracy": 22077, "ĠPNG": 32796, "ĠEmirates": 8313, "ĠPOST": 26540, "Sound": 40866, "ĠTuring": 42014, "olding": 30923, "ĠASC": 31660, "ĠPrecision": 29484, "ĠSCP": 47616, "Ġvegetables": 8942, "ĠTactical": 40582, "Ġmillennial": 24134, "\":\"/": 19207, "GO": 14740, "ĠAoE": 49715, "VA": 9788, "ãĥ¯ãĥ³": 49996, "Ġsustain": 9844, "ĠInterior": 8867, "matic": 29753, "Ġblasted": 14248, "Ġschizophren": 44803, "ĠRF": 18044, "ĠAuthorities": 4512, "green": 12354, "Ġpeasant": 42657, "Name": 31723, "ĠSorce": 48997, "chip": 16142, "Ġforceful": 32165, "Ġbenz": 39862, "Ġsmall": 650, "Ġ364": 38930, "Ġluxury": 4808, "ILA": 24570, "essing": 29905, "ĠTHEY": 36698, "rehensible": 39438, "uren": 20732, "ĠFerr": 22826, "Ġcivilians": 6321, "Ġbash": 12882, "Ġgoalt": 32385, "ĠMaul": 35676, "ĠHeist": 46433, "ĠHUGE": 43125, "Ġintroduce": 6581, "Ġreciprocal": 36285, "aiden": 41000, "ĠProtective": 34278, "ĠCTRL": 48282, "Ġbipolar": 31201, "Ġcondone": 35005, "Ġsober": 17333, "ĠVirt": 28187, "Ġspir": 23425, "Ġalarm": 8054, "104": 17573, "Ġtact": 27844, "brates": 42428, "Ġoptimizations": 46675, "Ġunanimous": 14421, "ĠHAVE": 27789, "Mand": 37136, "Ġcancers": 16640, "653": 38616, "five": 9579, "Ġaluminium": 18051, "ULL": 25792, "Ġvictories": 8156, "ĠSeoul": 9176, "Ġcat": 4758, "set": 8738, "Ġiron": 6440, "TF": 20249, "ĠNone": 9291, "Ġchain": 3206, "ĠSpeedway": 13243, "ĠIsa": 23182, "Ġjoy": 5823, "ĠMalfoy": 48378, "pleted": 42711, "Ġconclusive": 37847, "ĠXan": 38965, "GF": 27150, "ĠEthan": 15926, "ĠAmer": 14593, "aling": 8279, "ĠRE": 4979, "Ġautop": 23434, "Ġquite": 1341, "Ġadvertise": 26112, "PRESS": 27177, "ĠPrime": 1489, "ĠHol": 6217, "ĠHowe": 22654, "Ġmodifying": 38916, "ĠXI": 15419, "ĠLAT": 21455, "Ġpaste": 25079, "ifacts": 48007, "Ġutilizing": 21437, "Ġsemin": 38725, "Deploy": 48287, "Ġpresently": 10375, "ĠBarney": 32252, "ĠRoss": 4012, "Ġcont": 8541, "Ġdealings": 18380, "Ġancest": 48953, "Ġinstr": 49152, "Ġopen": 490, "adal": 23073, "ĠStandard": 5787, "Featured": 20877, "elf": 24973, "NZ": 28160, "Ġdisputes": 10794, "887": 40793, "Ġdefinitively": 35144, "Ġbal": 17832, "Ġboots": 10317, "processor": 45309, "Ġoutreach": 12356, "paren": 45208, "ĠLobby": 35434, "owan": 20409, "rer": 8564, "Ġcharacteristic": 26293, "ĠCapacity": 26422, "Ġtech": 2903, "ĠCheese": 25436, "ĠRepair": 34223, "eatured": 36609, "Ġamp": 28127, "Ġgeography": 18947, "strument": 41392, "Ġcautious": 9420, "ç¥ŀ": 49684, "ĠFrance": 1470, "Many": 10787, "Ġentitlement": 28610, "draw": 24686, "Ġdisliked": 40891, "OTO": 33770, "erm": 8362, "Ġover": 81, "Ġrich": 4066, "Ġtrolls": 25668, "ORN": 29242, "mpeg": 49221, "onent": 40400, "ky": 4122, "require": 47636, "ixel": 47944, "ĠPelosi": 9560, "Ġsection": 2810, "ĠRoe": 21503, "ĠShortly": 13450, "ĠHIT": 40562, "ĠAdvisor": 13050, "Ġfasting": 30290, "ĠPatreon": 44452, "Ġparticipates": 33439, "KY": 11490, "ĠFame": 7392, "ĠTape": 40458, "Mas": 36953, "Ġ1937": 31556, "677": 38434, "Ġpurs": 26934, "Ġinbox": 11106, "Ġconfounding": 42860, "UGC": 48068, "Ġsinks": 34034, "Ġfavors": 20145, "ĠNavigation": 38986, "Ġdeprived": 22632, "ushi": 23947, "Ġprepar": 30275, "ĠNike": 10239, "Ġsuperv": 21291, "Side": 42530, "Ġstunning": 5835, ")*": 44418, "Personally": 40026, "Ġdetention": 6848, "ĠPledge": 37657, "ĠSoros": 21093, "Ġpowerfully": 38880, "iscovered": 35840, "Ġimprison": 43210, "Ġgazing": 40804, "ĠSeconds": 37789, "Ġboundaries": 10156, "itation": 12257, "Gb": 43608, "None": 29802, "Ġdisplaying": 18534, "Ġrepealed": 29643, "ĠCES": 18694, "ĠMaw": 27990, "Ġtweaked": 31134, "Ġcongestion": 15744, "ĠKubrick": 43544, "ĠCharleston": 12118, "ĠCustoms": 10465, "Ġnoun": 44875, "Ġrequirement": 7404, "ĠAlchemist": 46848, "Ġ190": 17235, "igure": 47547, "Ġstabbing": 12676, "Ġbenchmark": 5437, "ricting": 31166, "Ġooz": 36111, "proxy": 47315, "Ġformulate": 33461, "eering": 28829, "ĠKov": 17857, "ãĥŀ": 49507, "Ġunn": 31550, "Ġintimidated": 25443, "Ġsouth": 2077, "Ġintervention": 6530, "ĸļ": 49829, "fif": 41830, "Ġtotal": 746, "SELECT": 49179, "ĠMILL": 34299, "Ġvag": 32447, "ĠBudget": 8587, "iability": 34337, "Ġcourthouse": 15695, "Ġpackets": 30781, "ija": 12733, "Ġforest": 6693, "Ġspecialists": 13923, "anchester": 46144, "Ġculminating": 29681, "Ġswiftly": 15682, "Ġconfused": 10985, "Ġorientation": 14497, "Solar": 44559, "ĠShut": 36707, "oker": 21783, "sort": 41685, "Ġpros": 15501, "ĠPalo": 21065, "Ġsoaring": 15447, "Ġendeavour": 32592, "so": 2527, "Ġretreating": 34709, "Battery": 47795, "ones": 6909, "Ġ327": 37595, "Ġgy": 18124, "Ġtastes": 17893, "py": 17163, "Ġpleaded": 4407, "ĠStainless": 43522, "Ġforests": 14275, "ĠRoz": 26532, "Ok": 26752, "Ġmargin": 2759, "Ġreliance": 14197, "ĠFlam": 37313, "meet": 29933, "lasses": 40664, "ix": 3181, "riminal": 38830, "ĠYad": 12098, "ĠMines": 24928, "Ġhemor": 49014, "Ġsocially": 17208, "ĠLif": 19556, "Ġgram": 25187, "Ġresearch": 557, "Ġfuner": 31978, "Ġconceded": 11508, "CHR": 34990, "Ġinspected": 22585, "417": 36711, "Ġlecture": 17299, "ĠPass": 7124, "Ġ1946": 27723, "ĠRagnarok": 39719, "girlfriend": 22943, "Ġtactics": 8893, "Ġpineapple": 33336, "E": 717, "Ġpetitions": 20562, "Ġsupplier": 9509, "Ġciv": 25604, "Ġrows": 22162, "Ġexpr": 48895, "Ġwake": 3874, "Anthony": 26222, "Focus": 39536, "USER": 47955, "Ġinsider": 6516, "ĠSun": 2083, "Ġpartnerships": 8670, "mart": 15964, "Ġlogical": 16437, "Ġhomes": 1611, "Ġconveyed": 25649, "Ġlanguage": 2777, "Ġunknow": 36756, "Ġwore": 5328, "Ġspecification": 30643, "780": 33066, "Ġmini": 7983, "Ġonto": 2500, "ĠLibyan": 18087, "Ġpublicity": 13698, "mt": 16100, "Products": 47559, "Ġoutstanding": 3973, "ĠGarland": 22280, "ĠRealm": 38814, "gging": 23941, "Ġfinishes": 11630, "lihood": 45286, "ĠCruel": 40192, "ota": 6804, "Ġentitled": 7919, "ulative": 38773, "ĠHome": 2193, "umber": 9936, "ĠBears": 6033, "Ġ404": 37014, "FIG": 46741, "pictured": 7711, "ĠDaniel": 3028, "URL": 42703, "Ġblockade": 21912, "Ġprecon": 40218, "377": 33588, "Ġfully": 1950, "Ġoccupancy": 22526, "Ġrails": 26717, "Ġredemption": 21772, "Ġkne": 25619, "Ġnewfound": 29514, "iliated": 37220, "ĠMata": 27256, "ĠOman": 18302, "ĠWilliamson": 13506, "ans": 1253, "Growing": 36883, "ashi": 11786, "ĠKh": 2218, "linux": 47694, "Ġprivilege": 9951, "Ġbrains": 15813, "475": 29156, "press": 13447, "ĠIronically": 26527, "movie": 38428, "ĠUnits": 24525, "ĠNin": 17450, "ĠBecky": 20845, "676": 39071, "ĠCavaliers": 9207, "Ġcomfort": 5863, "int": 2544, "who": 8155, "major": 25430, "ĠVaults": 48596, "ĠVIP": 14918, "Behind": 43414, "1988": 42853, "liquid": 42884, "Ġwas": 21, "Ġsoaked": 29365, "ãĤ¶": 49751, "Ġinterconnected": 34082, "Ġunconstitutional": 14935, "ĠNear": 15729, "ĠRaw": 8214, "Ptr": 49835, "Ġreson": 18482, "ĠDro": 26513, "absor": 40507, "Ġpsi": 46044, "Ġmarathon": 12973, "kick": 13643, "ĠCPS": 24809, "ĠMek": 32511, "Ġreductions": 14138, "Ġsimulac": 48472, "Ġgrizz": 32003, "Ġstandalone": 20677, "Debug": 49714, "Ġsecurely": 31328, ")[": 48462, "Ġanchored": 24028, "\"]": 42248, "ĠFull": 6583, "Murray": 42463, "zzle": 26216, "Ġducks": 30027, "gress": 39468, "ĠVest": 24534, "Ġcompressed": 34307, "Ġshroud": 43505, "ĠHarrison": 7287, "etsy": 46450, "Ġavg": 44678, "LOD": 48707, "£ı": 49971, "Cut": 40992, "audio": 24846, "HAEL": 37053, "misc": 45321, "ĠPadres": 14965, "Ġtorture": 11809, "Ġcoded": 40498, "mitting": 37740, "Ġcollaborated": 21793, "ĠWas": 6871, "ĠChimera": 46879, "Ġsubtitles": 41794, "approved": 20383, "erves": 22812, "ĠMord": 32889, "flo": 40693, "Ġbo": 5276, "ĠTaking": 10883, "ĠChanged": 43126, "ĠHappiness": 37842, "IRO": 16790, "Ġcompassionate": 23303, "uated": 14133, "Ġpend": 35394, "Ġstandard": 2526, "erella": 45414, "Ġnavy": 13504, "Commun": 38644, "utz": 17602, "ombo": 21931, "Ġcruiser": 25603, "oby": 22664, "Ġtexture": 18632, "command": 41483, "Ġsounding": 23266, "ĠMog": 18059, "ticket": 28362, "Ġimpunity": 24411, "uncle": 45711, "ĠAttend": 21226, "ĠWD": 33925, "Ġlear": 38401, "Ġbrush": 11822, "bery": 23138, "imei": 47998, "Ġbandwagon": 34438, "ĠFemin": 41978, "iler": 10329, "Ġsiblings": 10384, "Ġtents": 20783, "dark": 30423, "Ġbounced": 12407, "Ġfeces": 35914, "wd": 41564, "bda": 48631, "cus": 26797, "assadors": 39876, "Glass": 44189, "Ġwin": 339, "ĠMcC": 3409, "Ġculturally": 26973, "ĠDuncan": 11123, "stra": 10750, "Ġcompose": 38003, "aclysm": 43464, "icates": 23020, "ĠEvery": 4337, "ĠGamble": 24081, "Ġcourtyard": 27130, "ĠChang": 13325, "Ġpict": 40123, "ycle": 44397, "ĠCreed": 27364, "ĠIncredible": 36665, "Ġriches": 33884, "ĠYesterday": 15267, "ĠDuc": 20655, "ym": 8307, "Was": 32112, "ban": 7384, "person": 5970, "ĠForrest": 22647, "Ġharvest": 12171, "Ġcurved": 26183, "Ġrenting": 22175, "Ġhonest": 5322, "ĠCic": 31547, "ĠClouds": 37995, "Ġ128": 13950, "ĠVIII": 35959, "Ġcube": 37179, "Ġtrail": 5592, "éĹĺ": 50044, "ĠKear": 19878, "Iran": 21336, "Ġinherent": 17886, "044": 40847, "enos": 36048, "xxx": 46628, "ĠMcGee": 22982, "ĠVP": 13913, "Ġdemolition": 16607, "ĠEVERY": 32555, "Compare": 45448, "weather": 21693, "layer": 39165, "aldehyde": 42842, "Ġstabilization": 29632, "ĠStyle": 18149, "ummies": 38098, "Ġdepiction": 31388, "ential": 12986, "ĠLDL": 42397, "KT": 33893, "ĠMaine": 6488, "Ġsill": 38052, "Ġtrustees": 17464, "looking": 3690, "Ġrailing": 35376, "Ġincidents": 4495, "ĠDIRECT": 33668, "Ġlodging": 27145, "Sol": 39524, "Ġprediction": 16782, "PH": 7561, "input": 46797, "Ġ418": 42928, "472": 37401, "Ġinvestigators": 3725, "ĠIntroduced": 44421, "ĠNinth": 30400, "Ġpitched": 8050, "Ġcats": 10017, "Ġapproaches": 8369, "ĠSioux": 16939, "Ġstand": 1413, "Ġapopt": 47854, "Ġconfidentiality": 25643, "Ġjuxtap": 34778, "ĠTac": 34355, "TA": 3847, "Ġprevent": 2097, "ĠSavannah": 17316, "Ġinstallation": 8809, "engineering": 36904, "Ġnarrow": 6787, "Ġvacated": 25147, "ĠIntervention": 38894, "Ġponds": 30983, "SAN": 9300, "agne": 16784, "Ġchallenged": 6835, "âĺħâĺħ": 42682, "Ġunbeat": 39319, "ĠNeph": 46079, "itches": 30312, "rid": 10505, "ĠGavin": 14522, "keys": 18161, "Ġministries": 20402, "Ġadmitting": 13874, "ĠBrooks": 8072, "Ġ209": 28036, "Ġ--------------------": 47539, "ĠSanford": 23058, "ĠDevelopers": 27585, "Ġnicer": 35735, "Jane": 35903, "Ġdreaded": 31615, "Keys": 44534, "ò": 50096, "Ġheavenly": 40974, "ĠJah": 11084, "aura": 34541, "Ġsecuring": 10013, "aine": 5193, "kids": 28371, "Ġmetast": 33076, "ĠGret": 19554, "Ġpictures": 3493, "GU": 37133, "ĠFukushima": 28385, "Ġâľ": 36174, "Ġ660": 34782, "Ġsewing": 30890, "ĠHunters": 34926, "ĠShopping": 21261, "ĠGoat": 38723, "ĠCeres": 41504, "ensation": 42312, "Ġneur": 41213, "ĠCash": 7871, "KS": 18307, "CENT": 31152, "Hist": 38657, "oeuv": 41308, "Ġjournalist": 5226, "ESCO": 42456, "Ġprecision": 15339, "Ġforegoing": 37902, "edes": 34567, "ocl": 40273, "Ġgluc": 46086, "ĠApex": 36273, "oused": 26281, "ĠWorker": 35801, "Ġwaterways": 24416, "ĠDEAD": 38069, "ĠTrance": 48646, "ĠPlain": 19699, "Ġchoke": 25777, "Ġridicule": 35288, "Ġslight": 7019, "adiq": 27781, "ĠVenom": 38284, "Ġexperimental": 14073, "grown": 20629, "Ġlo": 4600, "Pol": 32400, "Ġsays": 161, "Ġmemos": 29966, "372": 34322, "prisingly": 47607, "Ġdefenses": 16946, "ĠMorty": 42497, "Simon": 37422, "Father": 40589, "Ġhydraulic": 29215, "sty": 23822, "Ġcaul": 36214, "oyd": 27559, "clip": 46413, "running": 12364, "Orange": 37264, "Ġtelecommunications": 15601, "Ġworldview": 35302, "ĠTrou": 28419, "acists": 44852, "ĠHutchinson": 21274, "ĠStam": 27234, "Ġantib": 42814, "Ġplanes": 8449, "DOM": 45092, "Step": 25093, "ĠSr": 8482, "Ġunt": 7587, "module": 48095, "15": 996, "Safe": 32356, "missive": 41687, "Ġhello": 20760, "arty": 17513, "Ġthous": 49412, "Ġexperiment": 9280, "ĠJackets": 20272, "Ġharmon": 21040, "Hero": 43483, "isner": 35448, "Ġrese": 25806, "circ": 31362, "ĠBarron": 20316, "ĠJes": 22198, "Mobil": 29077, "imate": 16633, "ĠOK": 4954, "ĠCanaveral": 37050, "aska": 22137, "ĠÂłÂł": 50253, "Dave": 33857, "Ġtrial": 1500, "ĠÂłĠÂłĠÂłĠÂł": 50150, "Ġapologizing": 31216, "shake": 41820, "Ġlied": 15005, "Ġproportional": 35563, "Ġcos": 12793, "ĠBEL": 36125, "Eth": 42301, "ĠSwift": 9345, "Ġrelied": 12767, "Ġpope": 16627, "RIC": 36570, "ĠPure": 19769, "Ġcirculated": 18296, "Ġrendered": 18728, "Ġsuspicion": 8551, "user": 12105, "Ġsalient": 41159, "iru": 23349, "ĠKeith": 6810, "Ġaroma": 37410, "Aut": 37434, "ĠBurlington": 18249, "oss": 5434, "Ġtermed": 20295, "Ã©e": 9703, "ĠConnie": 26113, "also": 19726, "escent": 42473, "Ġkinda": 24282, "Ġunpopular": 16919, "iness": 6601, "inqu": 32223, "ĠPassenger": 32763, "ĠKas": 10124, "Ġpopcorn": 26639, "orthodox": 47144, "-[": 48833, "Ġmurdered": 9694, "ĠFerry": 25820, "ĠBlizz": 47106, "Ġmonitored": 14316, "Ġstren": 34812, "etz": 13126, "UL": 6597, "ĠDys": 41763, "Ġtremendous": 6839, "Ġgaps": 10778, "Ġtraders": 5539, "cknow": 47678, "Ġexclusively": 8992, "Ġ1950": 9323, "ĠInvestigator": 39436, "users": 31964, "ĠHumph": 16788, "Ġbirth": 3113, "381": 35155, "']": 44403, "ĠSieg": 35494, "ĠDarrell": 25926, "asar": 31126, "Ġpartake": 37404, "controller": 45294, "stream": 8656, "ĠWill": 2290, "Ġblot": 39144, "Ġslogan": 16760, "Ġoperating": 1633, "priced": 18288, "ĠIntellectual": 39502, "Ġintentionally": 14149, "ĠAust": 18933, "ĠNorse": 41498, "Ġrecommendations": 4664, "Ġcomment": 1129, "ĠSolution": 29381, "ĠWillow": 22096, "Ġtong": 45299, "Ġshader": 48305, "rench": 18723, "Ġlinebackers": 26198, "Ġmidrange": 42744, "144": 25208, "ramid": 47483, "ĠGÃ¶": 41135, "ĠGuys": 28361, "Ġresil": 49342, "ĠIC": 8242, "ĠPlaystation": 44332, "omething": 47486, "gov": 7354, "Ġmolecular": 22481, "Ġfinances": 9083, "Ġchat": 7359, "ĠTrayvon": 41571, "ĠOpportunity": 19469, "VT": 35707, "clips": 45710, "ĠTrace": 26765, "ĠHarvest": 18413, "Ġ1987": 11735, "ILY": 24519, "Ġstressed": 5882, "wild": 29633, "Ġrife": 27921, "ĠT": 255, "Again": 34790, "Ġdrops": 9305, "ĠParticipants": 16693, "Ġoccupation": 14349, "enty": 24997, "RIPT": 38612, "ĠTa": 9002, "sq": 31566, "115": 15314, "ĠEthereum": 18353, "Ġcollector": 22779, "ilib": 42345, "ĠJacksonville": 9811, "inx": 34511, "Ġestab": 28769, "api": 30602, "ĠDevelop": 15347, "Ġoverw": 42674, "iar": 12202, "ĠWool": 14924, "Ġkit": 10549, "Ġorganizations": 2665, "ĠRemember": 9427, "ĠInformation": 3522, "ĠDane": 21767, "Ġrestricting": 22030, "å·": 48494, "ĠPIT": 34168, "ĠVac": 20271, "Ġprophetic": 43059, "acly": 49149, "Ġmarginally": 24022, "nces": 47569, "atable": 18564, "Crunch": 32105, "ĠVil": 22153, "Ġpen": 7670, "APP": 17167, "ĠHort": 27118, "map": 32557, "Ġavalanche": 24400, "Ġmanagers": 4389, "ĠPatterns": 46582, "ĠReyn": 31268, "Ġmusical": 4388, "ulture": 17898, "Ġugly": 11355, "pects": 31084, "Ġcoc": 29472, "FORE": 47431, "Ġcrispy": 32042, "ĠSets": 41385, "ĠEndurance": 41446, "ĠCrawford": 11245, "Ġslashed": 16900, "allic": 43300, "Ġpublishes": 27134, "Ġmathemat": 49633, "wyn": 16541, "Ġcompens": 29281, "Ġcrafted": 17626, "ĠMonsters": 37262, "Ġmentioned": 2801, "afi": 16834, "brance": 27517, "Ġpushed": 3148, "ĠAlonso": 15018, "Ġgrievances": 22666, "ĠCitiz": 49656, "Ġpoison": 17712, "7601": 48876, "without": 19010, "ĠPelicans": 17168, "Ġteachers": 2948, "football": 11107, "ĠFug": 34704, "Medical": 42024, "Ġounce": 10671, "ĠTate": 16255, "Ġmidfielder": 5732, "BACK": 40167, "ĠKass": 27154, "ĠBis": 24325, "useum": 31093, "Ġfail": 5998, "ĠREAL": 30323, "ĠBayern": 10402, "ĠGron": 18540, "INAL": 26306, "Ġdensity": 16522, "OW": 4581, "elly": 10917, "Ġinsur": 36686, "Ġracks": 34409, "Ġloves": 6138, "353": 27044, "lem": 10770, "Ġmultiply": 37571, "Ġleaf": 14610, "ĠKem": 15111, "Kit": 29233, "loader": 45910, "gam": 32959, "otropic": 45051, "Ġts": 42270, "Ġlogs": 24113, "Ġcosting": 15135, "Ġfitt": 35580, "NetMessage": 50157, "ĠGum": 32778, "lando": 29028, "His": 9962, "spection": 41708, "cation": 41684, "Ġenter": 2914, "ĠRudd": 22114, "July": 13882, "allows": 37984, "ĠIdeal": 39386, "ĠSamson": 28434, "ule": 7590, "į": 8384, "clad": 25769, "Ġchewing": 35053, "fledged": 30458, "ĠZone": 10351, "Ġrecol": 37941, "Ġbloody": 13629, "Ġantibody": 34517, "ĠSuperior": 11486, "lic": 5895, "ĠGate": 14552, "?\",": 40021, "mix": 39915, "Ġexcellent": 4206, "Ġmailed": 25803, "surprisingly": 33258, "Ġwip": 45108, "Ġshrunk": 28704, "Ġlooting": 28753, "Ġinline": 39491, "Ú": 46164, "Unlike": 38243, "Ġpodcast": 8591, "ĠStrength": 22825, "ĠMold": 22013, "Ġsomehow": 7421, "ÄŁ": 26828, "Ġtemp": 32196, "ĠKate": 5105, "ĠHoliday": 10824, "itime": 46727, "oteric": 47892, "FIR": 39679, "Ġanthrop": 32117, "ĠDirective": 41185, "Ġmetre": 24697, "Ġrescind": 21961, "ĠScorpion": 43745, "Enter": 30078, "ivered": 35158, "Ġpossessions": 16869, "voc": 31375, "Ġpavement": 20518, "ĠPhase": 11028, "Ġclar": 17691, "ĠABOUT": 16897, "Ġreferral": 25001, "Ġenthusiast": 27330, "ĠFra": 21809, "keep": 27390, "ĠBahrain": 13800, "Ġrifles": 17509, "Ġpeel": 31035, "ĠAthen": 43449, "greSQL": 48041, "tc": 42988, "Ġ13": 508, "Fran": 31418, "ĠSkype": 10220, "Let": 7939, "inside": 36615, "Ġgrotesque": 39725, "ĠAustralians": 15179, "ãĥ¼": 48438, "Ġrecogn": 15603, "oxic": 29948, "ĠBohem": 35118, "AMES": 29636, "Ġ[": 646, "ĠInteg": 29257, "Ġreign": 11604, "Ġantioxidants": 36869, "Ġtongue": 15686, "Ġafford": 4960, "owed": 9725, "Ġhonoring": 17198, "uploads": 12799, "ĠCAR": 11903, "release": 27561, "Ġtun": 27115, "ĠRasm": 40675, "three": 9983, "WT": 25982, "Ġunusually": 16616, "ĠBearing": 43770, "come": 19807, "ĠiPhone": 2733, "ores": 4765, "TE": 6433, "hare": 33719, "Ġchange": 464, "xf": 45678, "neg": 23156, "AIN": 33178, "Ġbrief": 4315, "Gr": 15536, "Ġplanting": 15505, "Ġsurfing": 22184, "ĠUFO": 32729, "Ġundefined": 45436, "Ġdri": 13911, "Ġzombies": 37132, "Ġleakage": 38146, "Ġdemonstrate": 8085, "Job": 43128, "Ġdispatch": 22903, "Ġcities": 1947, "Ġarter": 39929, "Brexit": 16636, "quiet": 35750, "via": 11409, "ĠFires": 38497, "inventory": 48384, "ĠGareth": 13600, "Ġ_": 18134, "Ġexpend": 40300, "BIP": 46258, "Ġdeciding": 8997, "ĠBert": 12975, "Ġrevive": 13096, "ocked": 9596, "Ġcompatible": 16632, "Ġkilomet": 22823, "ĠÂ±": 46710, "ĠFresh": 9602, "Ġshadows": 21841, "ĠBreath": 35419, "Ġstepped": 4425, "Ġbackdoor": 39987, "hest": 20921, "Ġseafood": 17098, "ĠCorvette": 36276, "Ġclutter": 36492, "ohyd": 46506, "Ġwiped": 16492, "Ġrespectable": 25031, "author": 11515, "prises": 37796, "Ġsubstit": 36553, "Joe": 18393, "otton": 41921, "Ġinstalls": 41153, "Ġfolk": 13134, "uyomi": 49705, "Ġray": 33803, "Ġaeros": 40161, "phil": 39142, "essen": 24439, "rooms": 16943, "Ġmemorable": 10132, "Ġdist": 7018, "icia": 16488, "Ġreserve": 6114, "Ġgrooming": 26925, "Ġneck": 5397, "Ġcurriculum": 12522, "Ġretire": 7865, "iom": 27074, "Ġunfolds": 30853, "Ġadherence": 31552, "Ġpayroll": 10984, "lim": 10839, "onna": 19864, "cluded": 26441, "Ġconsec": 39504, "Ġraping": 20669, "Ġflavorful": 41202, "ĠPolar": 26279, "Ġdosage": 38382, "ĠMetallic": 43974, "Shape": 45336, "roll": 9671, "176": 29431, "ĠQueens": 12446, "Ġmu": 14701, "ĠHalloween": 8789, "ĠGaming": 18003, "ĠSuc": 36344, "Right": 13984, "ĠCh": 732, "Ġbarbecue": 18906, "igma": 34719, "ĠMedline": 47730, "Corp": 25313, "porate": 34044, "ĠLis": 21469, "usually": 33834, "Ġdrilled": 20463, "Ġeradicate": 26813, "Ġran": 2075, "wit": 41493, "Ġpact": 12640, "Ġolive": 14983, "Ġwould": 74, "ĠChun": 28518, "iesta": 25865, "ĠHeroic": 47420, "Ġnominating": 31871, "Ġdisrespect": 19870, "Ġregulars": 29684, "Cook": 32963, "ĠBJ": 32978, "ĠNom": 11276, "Ġawa": 48387, "Ġimport": 6595, "Blood": 36746, "Ġviral": 7696, "Ġloaf": 34998, "Ġtrip": 1805, "BA": 3813, "anthrop": 36046, "ĠChen": 10136, "ĠBottom": 22116, "âĶĢ": 49192, "Ġbrowsing": 24033, "athed": 27205, "Ġheadquarters": 4351, "Ġb": 741, "Ġinherited": 17136, "aida": 36567, "Ben": 17521, "Ġdownward": 14659, "oing": 26856, "ĠRandomRedditorWithNo": 50198, "RAY": 37327, "Ġrefund": 12173, "Ġautobiography": 31511, "ĠFu": 13890, "fires": 23668, "aun": 7381, "Ġcannabinoid": 44351, "Ġexhibiting": 31624, "ousand": 37292, "401": 33871, "ĠChange": 7229, "Flags": 48167, "ĠSlightly": 43533, "ĠSanta": 2005, "573": 38992, "Ġpolio": 30801, "auntlet": 41239, "Ġspectator": 32745, "ĠHIGH": 23237, "Egypt": 37552, "ultan": 41181, "Socket": 49019, "Ġatten": 45497, "Ġpainter": 25760, "ĠMana": 42361, "ĠRH": 27188, "ition": 7469, "inion": 31210, "aution": 49818, "Ġdistortions": 41150, "Ġgoto": 49325, "Flor": 45344, "conv": 40474, "Ġmeanings": 39314, "Ġscenarios": 12593, "ĠTour": 3637, "Ġderog": 47158, "Ġactive": 2171, "ĠBART": 30634, "Ġcomplain": 11316, "Ġdiscarded": 24706, "Ġcontacted": 5590, "Ġparse": 43756, "Ġrepressive": 37868, "rollers": 34202, "apesh": 47684, "iller": 8690, "ĠChad": 7999, "ware": 10680, "Ġjaw": 15345, "Ġsoothing": 32625, ".âĢĵ": 34124, "power": 11017, "Ġ191": 31487, "Ġceasefire": 13983, "Ġopt": 7996, "ĠMER": 35055, "Ġdivine": 26280, "ĠIsh": 18222, "Ġsimilar": 1122, "ĠPell": 29755, "Ġdestinations": 11633, "Ġcalc": 43916, "Ġnob": 45984, "ĠSquadron": 34761, "Ġwhit": 21247, "Ġovercoming": 23968, "Ġunheard": 29786, "ĠPain": 23689, "ĠAncients": 48860, "Ron": 27674, "ITY": 8662, "685": 36766, "68": 4671, "Ġintruder": 34582, "ĠDate": 10566, "isy": 26351, "Executive": 36545, "oppable": 46160, "Pull": 45233, "Ġunequivocally": 33805, "acet": 26799, "Ġbackup": 8010, "Ġoutlining": 24387, "Ġhandled": 7521, "Ġcrowned": 19061, "orough": 33123, "ords": 15047, "Ġbudding": 25770, "Ġbehaviors": 17156, "Yang": 47235, "umble": 15373, "uchi": 21777, "âĶĢâĶĢâĶĢâĶĢ": 49884, "ĠAnk": 31780, "Ġfragments": 27958, "ĠRehab": 22969, "Ġtoddler": 16290, "ãĤ´": 49832, "EF": 22390, "Ġrecords": 2189, "gz": 45328, "Ġrays": 28496, "Ġlaughing": 11339, "ĠLT": 23614, "ĠAuditor": 16493, "Ġcharges": 1103, "ĠPlanet": 14839, "Ġshocked": 6649, "ĠDuo": 34847, "ĠCongressional": 9588, "ĠDucks": 12219, "pad": 19320, "ĠASS": 20860, "Ġpunishment": 8653, "ĠICE": 9964, "Ġ49": 2766, "ĠHos": 16502, "getting": 31315, "Cele": 31431, "Footnote": 49627, "uckle": 29907, "Ġpromoting": 6061, "01": 2663, "ĠAntonio": 4578, "hesis": 35571, "veland": 24890, "alias": 47910, "Ġmas": 11705, "Ġmotorcycles": 21027, "Ġmenus": 24261, "ĠManz": 34608, "WD": 18101, "aptop": 39782, "Ġswamp": 25299, "885": 37634, "ptin": 47746, "ologically": 30570, "Ġfortunes": 16927, "Ġsuspended": 3456, "sur": 12557, "ĠAlex": 2618, "Ġ2050": 24050, "lique": 29609, "nesses": 43010, "Ġpolitically": 7557, "ĠGuard": 6137, "Ġfacts": 4905, "ĠViolence": 17101, "ĠâĨ": 42543, "ĠBeware": 41926, "ippi": 37679, "ĠLap": 18485, "Ġundecided": 28598, "ĠContribut": 19507, "Ġreflection": 12456, "ĠXander": 36052, "ports": 8303, "economic": 12063, "Ġheels": 8872, "Ġquotation": 42854, "Ġhereafter": 46566, "chie": 17309, "etch": 29094, "ĠYanukovych": 42187, "urchase": 16707, "Ġdiscriminate": 28224, "ON": 2191, "AF": 8573, "ĠLiterary": 39227, "429": 31877, "Ġcharcoal": 29741, "Ġgentlemen": 22629, "atellite": 43089, "Ġidols": 39105, "Ġ:=": 49614, "ĠAfghan": 7649, "Perhaps": 32458, "Ġgoing": 164, "ĠMarketplace": 27878, "ĠMesa": 16850, "Ġhed": 17066, "omm": 8615, "Ġbuffers": 39588, "saf": 43425, "ĠÂ": 5505, "volent": 40180, "pathy": 39214, "ĠCandle": 40134, "Ġcoffee": 3895, "eful": 21954, "Ġsent": 1051, "Ġnerd": 39547, "ĠChronicle": 14486, "ĠDraper": 33515, "Ġtracts": 40425, "ĠLiberation": 22499, "ĠAlabama": 3053, "Ġrelentless": 16476, "ĠView": 3756, "82": 6551, "ĠItems": 31167, "ĠHence": 18709, "********************************": 47639, "ĠWouldn": 39269, "onel": 38055, "ĠRESP": 30714, "Ġcreator": 12475, "050": 25423, "Editor": 31611, "rub": 31413, "ĠScope": 30108, "Extra": 44923, "ĠBent": 15464, "690": 33636, "Ġmotto": 24609, "Ġtowers": 16200, "227": 29240, "Ġwhining": 42729, "Ġ458": 42513, "ĠHes": 32899, "Ġrecorded": 2673, "ĠReich": 24216, "Ġdraconian": 38256, "ĠMach": 9439, "Ġenjoying": 6218, "carb": 40957, "activate": 44410, "Ġsword": 20744, "ĠIllegal": 36993, "Ġreluctance": 25321, "Ġmultiplayer": 30295, "348": 27765, "alker": 38198, "525": 29451, "055": 39558, "Ġvisual": 7133, "Hig": 47296, "Sir": 33049, "Ġrobberies": 22352, "080": 32089, "quit": 35508, "ĠComment": 14642, "Ġthanks": 2446, "SG": 33020, "Ġbreeding": 16828, "804": 37413, "Advertisements": 49652, "fitting": 22605, "meta": 46876, "ala": 2331, "ecided": 46041, "784": 40729, "Ġloudspe": 37459, "igun": 46850, "share": 12689, "aquin": 23186, "Ġmalt": 34021, "Ġequally": 6681, "Ġnorth": 1926, "781": 40149, "Ġclose": 593, "Ġbooths": 24312, "Ġparked": 9181, "ĠHud": 25947, "Ġclubs": 4207, ").": 322, "Israel": 20517, "Ġcyt": 44193, "Ġinfluencing": 22405, "Ġcareg": 31745, "Lay": 42510, "ĠKap": 7131, "fire": 7051, "Ġcongratulated": 19412, "ĠPrix": 11761, "ĠBenedict": 20742, "Ġcontrolled": 4875, "Ġenforcement": 2251, "ĠLanc": 19766, "Ġmenacing": 32002, "Ġincomes": 14745, "Ġsquirrel": 29629, "Ġ133": 21448, "è¦": 48334, "ĠWhilst": 29339, "ĠJA": 38860, "Ġrecept": 41804, "Ġdere": 25872, "ĠTrey": 19568, "ussia": 17280, "Ġdisg": 47211, "Ġcutoff": 40002, "ĠKer": 9508, "ĠFilip": 21376, "Ġcon": 2764, "ĠVive": 23951, "Ġprost": 22115, "ĠCherry": 17238, "ĠDu": 5620, "ĠEle": 21615, "law": 4656, "ĠAlbania": 28849, "Ġdeaths": 3257, "Ġtrop": 37473, "avering": 28031, "Eng": 35180, "ĠBrut": 32702, "Ġexhibited": 22495, "Ġfields": 5447, "ader": 7292, "metics": 32056, "ĠParables": 49311, "Ġcomplains": 37649, "Ġviewpoint": 31140, "Ġripe": 23318, "214": 27153, "Ġwand": 33167, "Material": 47180, "risis": 28461, "Harry": 29345, "LINE": 28302, "Ġdefunct": 31727, "Ġworlds": 14490, "rup": 15566, "ĠEff": 20029, "atro": 25357, "Ġappear": 2082, "ĠCart": 13142, "Ġrestroom": 29278, "Ġcorrupted": 40124, "Module": 48720, "component": 46362, "Ġ)))": 49814, "Ġrookie": 4534, "Ģ": 7471, "Ġ;;": 49612, "Ġawfully": 38515, "IVE": 10002, "Ġforb": 34550, "ĠFound": 11911, "Ġwhistleblower": 27492, "ĠZot": 45502, "Ġacceleration": 19308, "Ġtape": 7898, "Percent": 48497, "ĠStanding": 15125, "horse": 19471, "photos": 40259, "Ġgarage": 8247, "Ġdancer": 17222, "Ġcod": 20993, "acion": 8647, "encers": 22691, "onder": 17037, "Ġf": 856, "rera": 24736, "Ġcitiz": 49825, "Â°": 12938, "Ġheavier": 19351, "OTOS": 24918, "Ġleast": 513, "irted": 31137, "umni": 28709, "Ġmanages": 10200, "Ġash": 14016, "ĠTurtles": 43843, "ĠMutual": 21248, "Climate": 40466, "Lisa": 39931, "Ġcolleagues": 4025, "ĠRavens": 10052, "ĠSergio": 11682, "pha": 44641, "Ġoperation": 2513, "ĠAccessed": 47244, "Ġ{{": 47517, "lvl": 49793, "Ġattended": 2922, "ĠChr": 22006, "Decre": 46136, "Phys": 43827, "ĠUnivers": 24066, "Ġconducive": 27273, "teness": 42883, "ĠKeyboard": 41132, "ĠSN": 13687, "Ġdeclare": 10152, "ib": 1452, "Ġdevelopers": 5485, "Ġpiles": 24449, "Ġtestosterone": 31079, "Ġta": 6735, "ĠPastebin": 49206, "!!!!!!!!": 47038, "Ġtwisted": 22027, "ĠFigures": 17907, "Ġheartfelt": 21844, "Ġrepresented": 4625, "Ġtractor": 17007, "Ġcomplying": 27815, "ĠFriend": 22733, "Ġshadow": 9099, "ocalyptic": 41855, "Ġproduced": 2622, "offic": 27257, "Ġhonorary": 23536, "Ġengulf": 36272, "ĠBapt": 42856, "ĠKay": 7120, "cm": 13753, "ĠNBC": 3890, "nar": 11296, "street": 20521, "ellen": 12128, "Ġdude": 22633, "Ġinstead": 1386, "Ġthyroid": 33670, "247": 27011, "Ġlen": 25528, "ĠUNCLASSIFIED": 49924, "Ġsmokers": 25494, "Ġcontrovers": 39298, "bon": 12573, "Ġraft": 18992, "Ġassistance": 3485, "79": 5220, "ĠFeet": 38452, "bury": 4232, "pent": 33475, "ĠSheen": 38172, "ĠSw": 3323, "Ġmobile": 1830, "ĠÙĪ": 41519, "Ġconsider": 1701, "bole": 38373, "ĠEnh": 44649, "everal": 49771, "ench": 24071, "ĠMelee": 48261, "Ġpoem": 19340, "Ġdischarge": 15462, "Ġwhore": 45590, "Ġbenefits": 1795, "ĠClarkson": 22144, "Ġmatter": 948, "ĠFrame": 37280, "Ġcooking": 6836, "Ġsimpl": 24988, "Ġautomate": 31399, "ĠKirin": 40388, "inky": 26749, "riages": 31354, "ĠPhotoshop": 35197, "Ġunh": 24376, "GAN": 38416, "ĠMi": 9109, "Ġinflu": 17471, "ĠMartial": 22510, "Legend": 46530, "ĠCards": 17972, "Ġ370": 27173, "rose": 14170, "Ġmorphine": 39057, "ĠMatthew": 4508, "Ġprovisions": 7668, "Ġdiscern": 27484, "well": 3056, "opa": 24104, "Ġgreen": 2272, "ĠThermal": 38137, "Ġlogin": 27754, ")=": 49143, "stri": 25354, "Ġharsher": 35710, "428": 38151, "ĠRoku": 25080, "ĠVG": 43040, "ĠLima": 18471, "except": 26837, "Ġevaluates": 37678, "ĠCommission": 1463, "ly": 352, "management": 14668, "Virginia": 38477, "Working": 33105, "ĠBak": 10856, "onis": 25516, "Ġstretches": 15706, "Ġretrie": 46256, "Ġinterpre": 36705, "Ġinst": 9084, "ĠOff": 4995, "SER": 41877, "ĠMississ": 27318, "ru": 2070, "Ġcalm": 6327, "Ġ355": 37415, "helm": 45663, "ie": 324, "ĠPearl": 14109, "ĠGrain": 33223, "capacity": 25421, "Ġsignatures": 13743, "dry": 16864, "NS": 6949, "attery": 35536, "ĠModels": 32146, "Ġseasoned": 19066, "Ġencouraged": 4446, "orset": 30057, "must": 26895, "nit": 39290, "Ġpriorit": 13993, "cross": 15329, "Ġfeaturing": 4246, "ĠMMR": 42558, "¦": 18164, "Ġfoe": 24432, "pay": 14066, "Ġdescriptions": 24173, "aj": 1176, "620": 32994, "Ġlamps": 30572, "ĠMuslims": 6299, "Ġ8": 290, "Ġnotifications": 16926, "ĠSuite": 13810, "ĠSay": 9867, "traumatic": 30865, "ĠOrigins": 40409, "Ġwhy": 596, "Look": 15833, "Ġsouthwestern": 20431, "ĠRelic": 45574, "ĠSeeking": 9402, "Ġbacker": 33669, "Rober": 46496, "ĠModer": 38451, "ĠDeV": 27296, "Ġcirculate": 37709, "Ġinhibited": 45427, "Ġrenown": 45098, "430": 29821, "achev": 35397, "ees": 5421, "ĠGo": 2381, "Vers": 45399, "uru": 5515, "ĠBarcl": 32308, "algia": 39883, "nat": 26992, "north": 25407, "270": 21063, "Ġcables": 19185, "ĠBrid": 19853, "ĠJudge": 3052, "Ġdisrespectful": 26401, "Ġresign": 6749, "Sum": 38182, "ot": 1242, "ĠUTF": 48914, "ael": 11089, "Rus": 44867, "ĠEquity": 11462, "enemy": 41320, "Ġdocs": 41825, "ĠYog": 23430, "Ġheaviest": 26766, "ĠNRS": 47135, "Ship": 44098, "Ġembod": 45896, "notes": 29369, "Ġbubbles": 26054, "URI": 42338, "Ġsupply": 1787, "Ġfairly": 5342, "gb": 19562, "ĠâĢ¦": 1555, "Ġreached": 1348, "Ġdissatisfaction": 31776, "beaut": 28878, "Ġgoalie": 12223, "ĠCyr": 22055, "ĠCompleted": 44282, "Ġpartitions": 46544, "ĠWales": 5295, "Ġ225": 15751, "ernels": 47909, "ĠSubject": 36994, "Ġtho": 41090, "Ġoccup": 38598, "ĠPriest": 30306, "ĠWinn": 21938, "size": 10799, "ĠSwansea": 15338, "Ġregional": 2174, "Ġgrap": 47660, "Anim": 46231, "GL": 10020, "Ġsees": 3681, "Ġprescribing": 30724, "Ġhilarious": 14598, "2007": 30741, "Ġtd": 47084, "Ġstation": 1992, "EST": 4923, "Ġsteals": 12297, "Ġtemperatures": 3971, "Ġcamping": 16724, "Ġdwelling": 28576, "ĠTHC": 29558, "Ġdisple": 43709, "ĠANN": 31256, "Ġstatement": 445, "May": 10004, "fair": 13500, "Ġfriendships": 22942, "Ġsurveyed": 12026, "Fighting": 43435, "Ġrealities": 18831, "Hamilton": 31382, "car": 5901, "Usually": 35808, "Ġsched": 46825, "Scope": 45190, "ivist": 35012, "ectar": 39459, "ĠUFC": 5062, "confirmed": 30677, "ĠACA": 20103, "Ġmicrophone": 18896, "ĠHorus": 48627, "oscopic": 40229, "Ġsurround": 21104, "Ġfines": 8892, "ĠCave": 24651, "Ġmagazine": 4320, "ĠDestruction": 43207, "Ġstrategy": 1860, "Ġdon": 218, "Ġocean": 6444, "ĠZup": 47968, "MON": 20911, "ĠPlus": 4642, "Ġeco": 21139, "cour": 36644, "Ġhairst": 25124, "ĠWalter": 10378, "ĠVox": 33856, "Ġdisenfranch": 34031, "ĠAmong": 3687, "ĠHil": 14909, "Ġconsequence": 15180, "iment": 8913, "ĠAnger": 39013, "Ġwitnesses": 6057, "ĠByr": 39806, "Ġpop": 3495, "introdu": 37343, "ava": 8604, "uate": 21269, "ided": 8598, "Ġjournalistic": 33999, "ĠPotter": 10997, "*/(": 50078, "ĠSources": 11598, "Ġtoy": 10771, "Ġlecturer": 24202, "ĠKet": 25429, "sil": 26239, "Ġpac": 18234, "ilibrium": 47295, "iddling": 36651, "Ġlearnt": 13973, "ĠFiction": 35320, "ĠWhere": 4820, "ĠWATCH": 10187, "Ġcurly": 36305, "ĠOPEN": 33720, "Ġcath": 31420, "ĠHamm": 24782, "ĠPAX": 46451, "Ġyo": 25610, "Sphere": 45097, "Person": 41761, "Ġprosecut": 42308, "ieu": 13627, "Ġinsignificant": 33710, "menu": 45801, "rance": 16557, "Ġpsycho": 37338, "Requ": 47090, "ĠSuk": 28035, "Ġrect": 20705, "Ġquantum": 17997, "Hot": 27735, "Ġindustry": 539, "Ġpant": 16259, "ĠBottle": 37880, "giene": 41866, "eni": 11273, "Ġmanipulating": 30830, "Ġprotecting": 6244, "hend": 21150, "Ġinsurer": 13720, "Ġpreferable": 37272, "ĠInvestor": 11506, "ĠAven": 17204, "Ġstandards": 2820, "Ġpriesthood": 41740, "Ġdecentralized": 34930, "Ġvictims": 1680, "ĠLonely": 39181, "fortable": 38093, "Ġprosecutions": 27999, "Copy": 48233, "ĠMarkets": 5123, "ographies": 24015, "boarding": 20592, "ĠSic": 26810, "etition": 37258, "sufficient": 33703, "config": 43163, "ĠSelf": 12156, "Ġï¿½ï¿½ï¿½ï¿½ï¿½ï¿½ï¿½ï¿½": 49399, "Ġhyper": 8944, "Obviously": 12455, "Ġpremiere": 7880, "Sel": 39736, "Ġphosphorus": 41095, "FP": 9763, "Ġsouven": 30791, "ĠJak": 18493, "Ġunhappy": 13865, "Ġcaution": 8038, "Yan": 43033, "ĠReset": 45144, "Ġqualitative": 29981, "imil": 27550, "Ġperman": 41367, "iam": 6009, "swe": 35047, "Ġsuperf": 39910, "Ġstagn": 32522, "Ġachievements": 9270, "Fax": 47588, "Ġ1918": 26589, "Ġgrants": 7752, "Ġ;)": 48306, "ĠGuatem": 33651, "ĠKO": 24721, "ĠBangladesh": 7077, "Ġcomposed": 14092, "538": 38425, "Ġgospel": 19753, "ilst": 32482, "edia": 24220, "ĠBenson": 20236, "Ġrouted": 30502, "ĠCr": 5309, "Ġlinked": 3307, "Ġtabloid": 25135, "ĠBanking": 12539, "Ġcult": 12308, "Ġ....": 39574, "Ġmirac": 39668, "Qu": 12444, "ĠArgument": 45998, "athlon": 22166, "Ġwounded": 5424, "Ġfax": 30561, "Ġfactors": 2433, "opher": 35885, "Ġhomeland": 16323, "Ġmeets": 6616, "ĠNeb": 23197, "independence": 33821, "ĠTrotsky": 46115, "cohol": 45270, "Ġdepressed": 16658, "classic": 41755, "ruce": 27947, "ĠPhar": 44286, "Ġoptimistic": 7168, "ĠBut": 125, "Ġhauled": 25737, "BTC": 38614, "Ġheads": 3885, "ĠShould": 7698, "Ġfirms": 2566, "Ġfound": 303, "ĠJericho": 32398, "ĠLoaded": 45759, "Jo": 19842, "shaw": 18086, "enz": 16481, "nos": 29708, "Ġemail": 1047, "Ġfox": 23602, "Ġtyph": 27429, "Border": 43620, "ĠGuess": 31239, "Ġbehavioral": 19184, "ĠCarney": 19558, "ĠTiger": 8972, "Ġoutsiders": 25445, "Â¯Â¯Â¯Â¯Â¯Â¯Â¯Â¯": 50058, "similar": 42116, "ial": 2617, "asser": 16151, "ĠRPGs": 47078, "Ġlightning": 14489, "ĠTehran": 9034, "mobi": 49001, "Ġpregnancy": 6690, "ãģ®å": 49223, "ciation": 48131, "ierra": 37511, "???": 38713, "Ġgladly": 36811, "Ġrevital": 17553, "ĠOut": 2548, "amon": 22704, "ĠBattlefield": 36954, "ĠSPD": 15753, "ĠIntegration": 33219, "601": 38613, "Ġmonastery": 39065, "Ġrepairing": 26643, "Ġbenefic": 34644, "ĠDiet": 15712, "Ġinitialization": 49164, "Training": 44466, "Ġautonomy": 17394, "Ġgenerals": 25363, "ST": 4014, "679": 38770, "Ġ4000": 32542, "atell": 26142, "ĠArmored": 45727, "Ġstain": 32551, "FB": 22687, "ĠLarson": 17834, "izophren": 47325, "////////////////////////////////": 49216, "ab": 873, "OIL": 41382, "Ġlocked": 5930, "env": 41124, "ĠMug": 7148, "ĠOC": 18726, "Ġimprovement": 3855, "Reviewer": 48922, "Ġquant": 24934, "Ġyen": 4796, "Ġtrilogy": 26105, "ĠBlessing": 39378, "lying": 13010, "ãģĨ": 48718, "Ġsur": 8113, "ĠMust": 8495, "ĠSim": 6202, "Ġandroid": 42492, "Rat": 40855, "ounty": 42440, "Ġlvl": 49626, "Ġarises": 28125, "Ġdenouncing": 32439, "itational": 17166, "ĠNoel": 16958, "acement": 23423, "Ġaccord": 10170, "Ġmethod": 5448, "culus": 46283, "ĠWR": 8692, "ĠLivingston": 21845, "lib": 34748, "ingham": 20117, "RPG": 47766, "Ġrepresentative": 4915, "Ġdiscounts": 12018, "ĠFou": 34495, "ĠKinn": 32217, "Ġterminal": 9632, "STD": 47136, "ĠPredators": 18445, "ĠReported": 23995, "Ġfinance": 2879, "ĠGibson": 9909, "Ġillum": 49055, "Ġstrengthen": 5920, "Ġreacting": 21652, "Ã¼": 2768, "ĠIngram": 17018, "Xbox": 46705, "Wh": 14447, "ĠSour": 39411, "enes": 39268, "Ġplagued": 16145, "innon": 22863, "Ġcited": 4418, "Ġ08": 12112, "Ġfractured": 18067, "ernel": 48954, "ĠPlaying": 15861, "ĠFeld": 35083, "ĠIncreases": 43832, "lar": 10898, "Ġbrings": 3291, "ĠIoT": 13044, "Conservative": 43381, "Ġcalendar": 7127, "Ġforgiving": 36341, "ĠPayton": 21935, "Ġsod": 27928, "rain": 9946, "collar": 27543, "Ġinsulting": 22602, "ĠShirley": 18623, "Ġgovernment": 168, "800": 3913, "Ġwebsite": 998, "Ġlymph": 23496, "restling": 40719, "ula": 5571, "CHAT": 47921, "elected": 15672, "ãĥķãĤ¡": 49876, "Ġdiarrhea": 28657, "TT": 14543, "Ġwealthy": 8581, "Ġtoggle": 23012, "707": 34877, "tub": 30326, "HF": 25894, "ostics": 21611, "omedical": 39820, "Monday": 24152, "Ġescort": 24780, "ĠOregon": 4316, "rings": 19706, "Ġpostpone": 24059, "rifice": 45966, "ĠHealing": 35479, "Ġ780": 37866, "Ġparadox": 30556, "tenance": 42192, "Ġloss": 872, "ĠHyde": 17229, "ĠAugustus": 42352, "opathy": 31395, "ĠMun": 6760, "irling": 25662, "Ġgang": 5188, "ĠEchoes": 46507, "Ġboat": 4293, "Jerry": 39237, "ĠKeane": 26887, "ĠSmy": 23939, "Ġfaded": 21155, "04": 3387, "devices": 44326, "Ġcheckpoints": 26191, "CO": 6335, "Ġinspect": 18973, "Ġcommand": 5936, "Ġcradle": 39111, "ĠDestination": 37166, "ophobia": 24938, "Ġmodifiers": 47605, "ravis": 39211, "ify": 4591, "Ġwindshield": 26689, "ĠSyri": 35938, "ĠWen": 19608, "Ġadvoc": 48471, "aria": 8954, "ĠBare": 22888, "Runner": 45163, "rap": 8645, "Emb": 42578, "Ġchained": 38938, "Ġhorses": 8087, "ĠWet": 20925, "ĠTC": 21137, "Ġspeculation": 6116, "ĠLocation": 16287, "ĠBrunswick": 16143, "regulation": 40757, "Ġpursued": 13942, "ĠPROG": 45667, "Ġ28": 971, "Ġaudible": 37621, "inning": 15853, "Ġgain": 2364, "ĠDread": 44865, "suggest": 42353, "Pres": 28917, "Ġ[+]": 49632, "75": 2545, "Ġvintage": 12669, "ĠMarines": 19368, "ĠNir": 28140, "Ġmanufacturing": 3021, "ĠMetroid": 46103, "ĠThan": 15446, "Ġhomers": 12141, "Mouse": 48394, "Ġswast": 36656, "Ġuncle": 11992, "atches": 24700, "mental": 36203, "vor": 23690, "Ġquick": 2119, "ĠEU": 1281, "Ġaiding": 26616, "Ġcured": 32311, "ĠPT": 7008, "Ġord": 22474, "Ġtag": 6694, "ensen": 23891, "Ġterminology": 33090, "782": 40092, "Ġyourself": 2512, "abit": 30820, "Ġcripp": 40062, "û": 50103, "Ġparam": 40206, "Ġepic": 9066, "Ġunsc": 21219, "Ġmash": 29516, "IME": 28417, "ĠRobot": 31024, "ĠRomeo": 24069, "Ġironically": 30829, "ĠUsed": 30374, "Ġcraft": 6306, "Ġmachine": 3563, "ĠWeber": 15275, "Ġincrim": 36932, "Ġ262": 35523, "Ġlobbying": 12812, "Tri": 35587, "ĠUb": 31817, "ussions": 22909, "ĠRoller": 39139, "Bird": 39376, "ibel": 31477, "Ġ2019": 954, "ĠMacedonia": 21894, "ĠCrab": 25908, "Ġchrist": 29224, "Ġdevout": 36906, ";;": 48640, "ĠTrafford": 13592, "ĠSTOP": 40061, "Ġdirection": 2698, "ĠTemporary": 36371, "Ġregrett": 31433, "Ġoccupational": 30949, "itbart": 43701, "ĠNJ": 10585, "Ġdividend": 2252, "ĠLocated": 21404, "imir": 32850, "ay": 857, "Morgan": 40102, "Despite": 15243, "Ġbasal": 45753, "Ġresurrection": 38241, "Ġplausible": 27099, "Ġambassador": 6499, "organized": 29835, "ĠRAF": 28539, "aryl": 45456, "Ġadaptations": 38232, "ĠKids": 9151, "Ġtooth": 13495, "Pretty": 37396, "arya": 23588, "Ġexcessive": 10079, "ods": 20529, "lin": 2614, "oufl": 47449, "Ġenemies": 11058, "ĠNose": 39273, "Ġcompletely": 2198, "Ġoppose": 9449, "ĠMakes": 25379, "ĠMead": 25420, "ĠMember": 10153, "Ġfinish": 2073, "GHz": 23108, "idespread": 38327, "ĠAmbrose": 25349, "Ġ107": 13674, "ĠLens": 32926, "Regular": 46309, "Ġdebunk": 41078, "Ġswitch": 5405, "show": 12005, "Future": 37577, "ĠKi": 11488, "ĠSaturday": 378, "ĠClause": 36913, "ĠTHE": 1941, "Ġneed": 240, "ĠOf": 1525, "asers": 22476, "istration": 32078, "Ġdrafted": 9559, "ĠOverview": 15184, "ĠAram": 21918, "Kevin": 21910, "ĠUM": 22759, "Ġminim": 15970, "plets": 38041, "Ġprovoking": 35359, "ĠPro": 1698, "Ġglitch": 31482, "Les": 35057, "Ġcampaigning": 12711, "essee": 39941, "Works": 26025, "ĠHunt": 7567, "565": 37402, "ĠPlanetary": 43295, "aud": 5247, "gerald": 47653, "Ġtitan": 39996, "Ġenclave": 24562, "zar": 24759, "ĠLiqu": 26185, "Ġcorn": 7636, "ĠHouth": 14679, "Ġpermissible": 37585, "down": 3955, "Ġful": 43142, "Ġreinforces": 31265, "ĠSpecifically": 19282, "Ġrevisions": 24084, "Ġtraveled": 8468, "ĠINFO": 42962, "Ġ1986": 11265, "åĬ": 47645, "Located": 47024, "ĠOdd": 17448, "Drug": 41533, "Ġprofess": 29200, "ĠRELEASE": 37877, "lected": 17970, "oire": 41154, "fell": 17195, "pecially": 45674, "Ġinfectious": 19166, "Used": 47640, "ĠSAF": 30334, "Ġoxide": 30629, "info": 23999, "nia": 17493, "Ġsentence": 3645, "Ġunstoppable": 28984, "rimination": 39091, "Ġconveniently": 31032, "Ġin": 11, "Ġtil": 19976, "Ġqueries": 22680, "ciating": 48027, "Ġlender": 10007, "Ġphon": 43676, "ĠJack": 2722, "ĠResp": 40076, "Ġ403": 35611, "wheel": 13630, "ĠBing": 14365, "Ġcompounded": 24094, "ĠHur": 8657, "Ġolder": 2530, "eday": 43975, "ĠTalent": 18436, "Scient": 46300, "Ġdiagnostic": 20862, "Ġambitions": 12294, "Ġpulses": 33274, "ount": 12825, "Ġcute": 11962, "ĠJFK": 29889, "orth": 22494, "¶æ": 49363, "Ġbreaching": 25600, "Ġsubmissions": 18219, "udos": 30729, "ĠSVG": 47348, "Ġbutcher": 32364, "Ġ680": 37326, "Heat": 44644, "Ġfort": 15016, "soever": 47543, "Ġexplicitly": 16369, "ĠCourts": 25627, "ĠAppalachian": 28480, "Ġrecalls": 10270, "Ġstarved": 35365, "This": 713, "Ġstandings": 10833, "Graph": 45288, "Ġfootnote": 41887, "Ġexcerpts": 30336, "ctl": 47074, "Ġreward": 7970, "meat": 38542, "aments": 26494, "Ġaffordable": 4555, "ĠVersion": 35110, "Ġpolitics": 2302, "Mi": 39168, "ĠAur": 24368, "ĠHonest": 39016, "ĠGraphic": 26237, "ress": 5224, "emn": 43298, "Ġtreacherous": 31983, "Ġrock": 3152, "Ġlocal": 400, "ĠNames": 34557, "Ġdisposable": 22400, "Ġdisadvant": 48798, "rival": 27978, "Ġcotton": 13178, "Ġdestroying": 14340, "Ġextortion": 24582, "bing": 6721, "ĠEnded": 29608, "Ġ2006": 3503, "cosystem": 42451, "non": 13424, "Ġheterosexual": 35262, "Ġmundane": 31215, "ĠInvestment": 2830, "Ġdiffuse": 41118, "Ġaggregation": 40796, "ĠRecords": 10023, "terror": 26213, "ĠBane": 41730, "adier": 28071, "Ġ30": 389, "æĪ¦": 49902, "Type": 40118, "ĠScale": 33256, "ĠMartha": 15281, "Ġdatasets": 42532, "Offset": 48772, "ubby": 35783, "Ġinsane": 18544, "illary": 31867, "Ġfirst": 78, "Ġtyrann": 43450, "rest": 7110, "burst": 42342, "ĠRational": 42083, "kell": 25723, "ĠCon": 2585, "lex": 14726, "ĠAid": 11572, "ĠHaj": 19708, "ocity": 36139, "Ġfrig": 25805, "ĠVed": 27194, "ĠKeller": 20116, "ĠBow": 9552, "Ġinstability": 16826, "Ġswapping": 32093, "habi": 45220, "Ġappointments": 11076, "Ġdetrimental": 23883, "oir": 13878, "ĠRCMP": 10376, "Ġinflicting": 36819, "ĠALL": 12389, "Ġstuffed": 16775, "Ġimprovements": 5139, "ien": 2495, "mk": 43503, "Ġredirected": 36966, "ĠItalians": 29481, "ĠYok": 31853, "ukemia": 44336, "ĠSem": 11202, "Å": 1277, "Ġexalted": 45514, "Ġlicense": 4385, "Ġoceans": 19785, "message": 44773, "Terror": 35568, "ĠWolfgang": 30310, "Ġsavior": 40611, "intage": 43288, "Ġclassics": 20323, "Ġuniform": 8284, "Ġlooked": 1415, "Ġinconsistent": 16611, "ĠFrancois": 16704, "Ġpenet": 43463, "Ġdisinformation": 30526, "Ġannoyed": 26678, "ĠLon": 16461, "ĠCP": 11565, "Ġexemptions": 20712, "dp": 43923, "dd": 16134, "Data": 30383, "Creat": 42349, "ĠMedals": 45578, "å¿": 48765, "Ġdistrict": 1418, "Ġgenres": 23409, "Ġcriticisms": 23585, "Ġnetted": 15825, "ĠFedora": 42426, "live": 16244, "odon": 41839, "ĠSurve": 39822, "Ġsystem": 467, "placed": 12459, "Ġfoo": 48769, "Ġecosystems": 24843, "andering": 32741, "ĠUm": 12698, "ĠDisable": 43590, "Ġshipping": 6738, "ãģ¾": 48576, "S": 104, "Ġbatteries": 10535, "Ġauthor": 2730, "Ġspelling": 24684, "'';": 49525, "anza": 19209, "Ġthankful": 12025, "âĢĶâĢĶâĢĶâĢĶâĢĶâĢĶâĢĶâĢĶâĢĶâĢĶâĢĶâĢĶâĢĶâĢĶâĢĶâĢĶ": 45437, "Ġindis": 36464, "Ġmayor": 3647, "(&": 49763, "Ġaspirations": 16275, "ĠOu": 29992, "ament": 5511, "Ġtant": 23282, "ĠFancy": 36412, "ao": 3853, "Ġviz": 27155, "Ġenergetic": 20425, "Ġadvancements": 23931, "Tra": 24523, "bl": 3662, "Ġseparatist": 21324, "Ġscatter": 41692, "Ġtopped": 8319, "Cooldown": 50042, "Ġcaveats": 40833, "gpu": 49375, "Refer": 48310, "gypt": 44724, "Ġprosecuted": 15984, "ĠDiscovery": 14735, "Ġsubtly": 35040, "iri": 6841, "argon": 46974, "Ġlad": 20986, "Ġyarn": 32566, "///": 49104, "ĠCOVER": 35929, "Ġnever": 393, "Ġderivative": 30666, "112": 17729, "ĠFY": 9878, "Ġprinted": 11118, "Ġdisruptions": 19534, "Â»": 12686, "ĠKub": 23010, "Ġjuven": 48446, "Ġaux": 27031, "ĠPremium": 13252, "¨": 11423, "rons": 26573, "ĠCurt": 24822, "Ġdirect": 2228, "Ġwetlands": 29084, "abin": 17531, "ĠRudy": 20243, "Ġdiets": 22669, "Ġaggravated": 10040, "eele": 34848, "Ġsymptom": 28667, "ĠSunset": 23263, "Ġharb": 32435, "illery": 24463, "playing": 20180, "Ġcontractors": 9617, "Ġdigitally": 25318, "`,": 48948, "ĠDob": 16149, "Http": 49549, "Ġhomelessness": 14845, "ĠRudolph": 26072, "ulous": 19631, "Bed": 44391, "office": 23252, "Ġarmoured": 35113, "typ": 38321, "Ġearliest": 13342, "Ġhr": 42957, "Detroit": 27007, "Ġrelief": 3500, "Ġ=================": 48029, "Ġexternally": 38826, "ĠTCU": 23383, "scape": 18795, "otte": 17034, "enta": 16586, "Opt": 36542, "Ġintrigued": 28622, "Ġfraction": 13484, "Ġclutch": 18210, "oci": 17641, "eno": 14511, "Ġreassuring": 26701, "Ġachieved": 4824, "Ġsuperhero": 15257, "ĠQuartz": 36544, "imester": 38417, "ĠDRAGON": 48397, "Ġbegg": 39882, "xia": 35157, "ĠDEC": 16718, "ĠMexican": 4938, "Ġaboriginal": 41579, "Ġtry": 860, "Ġantic": 38189, "Ġmirror": 9807, "ĠMoor": 19524, "itous": 34669, "Ġrosters": 31096, "ĠELECT": 36630, "Ġenthusiasts": 16912, "Ġsomething": 402, "Ġguardians": 27496, "Senator": 36328, "555": 33772, "Ġrecollection": 36261, "Ġpersuaded": 23130, "ĠDivide": 39030, "ĠLans": 30245, "Card": 23818, "Ġtenancy": 43921, "Ġvibr": 31495, "abbit": 43581, "ĠJuven": 28738, "Ġsewer": 17221, "Ġunspecified": 20022, "Ġbrig": 37063, "Ġes": 2714, "ĠCombine": 26128, "Ġassimil": 39842, ".).": 24521, "Ġdespair": 21508, "DoS": 41501, "croft": 26357, "Ġeurozone": 24860, "Ġpenetrating": 39118, "illus": 43335, "ĠEquality": 27943, "Ġmatch": 914, "ussen": 29245, "ĠINV": 18638, "Ġanomaly": 30942, "CLE": 21631, "Param": 48348, "Ġell": 28041, "comb": 15302, "plays": 33593, "ĠSharon": 12417, "Ġblatant": 26248, "Ġbouncing": 22541, "ĠDiver": 42485, "ĠFleet": 13727, "ĠArkham": 47178, "Mill": 26377, "split": 44154, "ĠButton": 28137, "pace": 18851, "Ġfren": 26908, "202": 25155, "Ġrenovated": 20882, "ĠVall": 25424, "BF": 21265, "Ġclass": 1380, "ilater": 47255, "Ġcock": 24231, "erto": 23880, "sters": 9230, "aptic": 47553, "Ġsaddened": 19934, "ĠSerbian": 24229, "Ġbegan": 880, "ĠKT": 24047, "orously": 38564, "Ġtranspl": 28748, "ĠHidden": 26234, "Ġweakest": 19261, "ĠSomeone": 15412, "ist": 661, "Ġå¤": 49505, "ĠRevis": 38255, "Ġ420": 26748, "aday": 25028, "Ġwhirlwind": 28252, "Ġdisturbing": 11783, "Sure": 32541, "Ġsweet": 4045, "ĠRatio": 20475, "mid": 16079, "Ġhalftime": 7143, "uge": 11797, "folder": 48811, "aturday": 47035, "ĠHub": 12991, "Ġsubstituted": 33084, "ĠQuality": 13343, "1971": 45433, "Ġagain": 456, "Ġbronze": 9768, "ĠGall": 7155, "ret": 4903, "ĠFulton": 21605, "ĠBS": 26190, "Ġconvinced": 7013, "interrupted": 46500, "ĠEagles": 3846, "lear": 35467, "ĠLash": 25164, "Ġcyclists": 19294, "Appearance": 49571, "lies": 15124, "Ġfaiths": 34332, "Ġapes": 42518, "Ġjudged": 16247, "Ġdot": 16007, "Ġinsurgents": 15640, "Ġdrug": 1262, "Ġnep": 45428, "ĠMuch": 7840, "ĠFletcher": 15784, "avor": 22042, "autical": 26832, "Ġutilities": 9987, "ĠCraigslist": 37439, "ĠHomo": 42769, "Ġlocate": 12982, "ĠJi": 26333, "lance": 42162, "Ġsynchronization": 46127, "arcity": 47769, "Ġ53": 4268, "rence": 21557, "ĠPyrrha": 49933, "ocom": 43779, "Ġstudies": 3218, "Ġheavyweight": 12835, "jiang": 20852, "ched": 3804, "ĠAds": 35461, "Ġghost": 15934, "Ġlegend": 7875, "Ġboobs": 39499, "ĠCycling": 28544, "existence": 35445, "Mine": 38540, "ĠEm": 3676, "Ġtor": 16535, "still": 17830, "Ġcongratulate": 20784, "ĠRunning": 15552, "Series": 25166, "Changes": 44669, "ĠBreast": 25182, "ĠPratt": 17269, "unts": 32346, "ÃĽ": 49506, "Ġstocks": 1815, "atti": 13528, "ĠEyes": 26945, "Ġstoring": 25228, "ĠNegro": 35206, "Ġneedy": 28166, "stated": 21075, "ĠChuck": 8049, "ĠVladimir": 6546, "Ġdisclaimer": 40140, "hene": 29089, "ĠPetersburg": 14330, "tackle": 46037, "ĠLind": 7596, "ĠAdvantage": 29113, "ĠPru": 42087, "Ġreforming": 31447, "Ġblind": 7709, "burg": 3321, "Ġunprotected": 37442, "ĠGarden": 6081, "ĠCharity": 20002, "Ġjoyful": 32076, "Ġsneaking": 36596, "Ġsides": 2380, "shr": 42098, "estead": 23628, "x": 1178, "Ġblocker": 31639, "Ġcaves": 33962, "ĠBarcelona": 4612, "Ġcompat": 20840, "announced": 29096, "Ġadul": 42146, "allion": 37696, "consuming": 27900, "picture": 37587, "ĠWizard": 31893, "Wave": 37334, "ĠLam": 6887, "owicz": 30268, "1980": 34499, "ĠThousand": 24359, "chell": 25365, "Ġharmless": 27243, "Ġsurroundings": 18386, "ĠIris": 31975, "Ġeuro": 2287, "Ġgreens": 16543, "ĠDirectorate": 23691, "ĠSaudi": 2030, "Ġadvised": 5578, "aux": 8624, "ilon": 33982, "Ġclassical": 15855, "ĠWhitman": 32421, "Ġinitialized": 49271, "Ġener": 38351, "otrop": 47369, "Ross": 35978, "ĠCovenant": 32975, "Ġ1905": 40849, "rab": 14191, "Born": 39722, "Display": 47254, "Ġcitizens": 2286, "Ġexpansive": 21734, "Magic": 35877, "Ġfundamental": 6451, "Progress": 43881, "aly": 7776, "ĠFitz": 21872, "amide": 39522, "ĠJab": 18788, "ĠTie": 34275, "ular": 8244, "iliation": 26045, "Ġdependent": 10597, "Ġstrings": 22052, "ĠBooker": 14725, "ĠLLC": 2291, "Ġaide": 9498, "Ġoptimal": 19329, "TR": 6997, "ster": 3121, "ĠMinisters": 18752, "internet": 42182, "Ġpracticable": 45130, "Ġceramic": 28238, "BILITIES": 45490, "ĠTRI": 32725, "ĠTome": 43502, "Ġawaken": 43265, "mini": 32081, "ĠTravis": 8308, "aten": 26511, "Ġprimates": 43134, "urity": 25075, "ĠLanguage": 22205, "ĠIdle": 44553, "Ġconducting": 7909, "Ġlogger": 37764, "Ġ356": 39935, "Ġcommerce": 13715, "ĠCombat": 30456, "zin": 28973, "IFA": 28673, "ĠMills": 9059, "Ġcom": 3137, "status": 29552, "ife": 11819, "Ġexodus": 27191, "Ġ------": 36738, "Ġreb": 5898, "ĠMole": 35226, "Ġschedule": 3078, "Ġformats": 19052, "ĠLauncher": 44698, "osher": 47424, "BB": 7405, "Ġsubstance": 6572, "ĠGolf": 6111, "utsu": 47568, "Ġaffiliation": 23114, "Ġyogurt": 24351, "enko": 19536, "Rs": 18591, "Ġsituations": 5458, "chet": 23024, "ison": 4060, "Ġcontingency": 24584, "Ġundone": 33820, "$,": 47110, "Ġwonderful": 4613, "Ġ750": 16725, "Ġbelie": 43731, "mm": 5471, "lez": 23250, "526": 30359, "ĠMarxism": 44760, "ĠSemin": 22142, "ĠColors": 37780, "yip": 49002, "ĠHamp": 25226, "Really": 30327, "ĠHiroshima": 35406, "Ġreconnect": 26119, "osi": 15879, "Ġdataset": 41616, "Ġgou": 34348, "aple": 44003, "Ġsloppy": 26654, "Ġwealth": 4764, "Ġstrawberry": 30559, "ĠMasonic": 39306, "Ġduly": 27069, "ĠGamerGate": 49165, "OLOG": 38054, "itent": 37403, "cephal": 38407, "Ġspinning": 17653, "ĠVermont": 10487, "Ġengineered": 19606, "ĠTribune": 7990, "ractor": 31342, "he": 700, "ĠFem": 29405, "Ġpaddle": 26087, "Ġfulfilling": 18112, "alion": 47067, "uned": 37236, "ĠBerkshire": 16563, "ĠHorror": 28719, "ĠAssoci": 36976, "other": 7443, "Ġhypothesis": 31098, "Ġproven": 5401, "ĠAssociates": 11823, "omical": 40421, "words": 30938, "Ġov": 19414, "ĠZhang": 16087, "Ġclaimants": 32921, "ĠRT": 10541, "ĠFunding": 21859, "Ġforeigners": 13555, "pat": 11632, "raz": 9919, "481": 34490, "ĠShir": 25700, "Ġpainfully": 32020, "ursive": 47779, "Ġkeyword": 36585, "ĠDEN": 28139, "lli": 10054, "Push": 46971, "Cle": 39390, "ĠChin": 17289, "ĠMount": 5455, "Ġ50": 654, "otti": 14683, "ĠCongo": 11536, "Moore": 34787, "ourn": 8371, "Big": 12583, "issions": 31358, "Ġallegiance": 24614, "Ġfret": 31391, "Ġmelee": 36934, "ĠAttorney": 2745, "Ġknown": 684, "Ġmobil": 16559, "ĠVanguard": 12157, "compan": 39788, "Ġliquor": 13782, "¥": 8210, "IS": 1729, "033": 40958, "ĠDiane": 13649, "ĠWond": 39980, "atus": 29913, "ARI": 32665, "Ġstewards": 20832, "Kid": 42303, "krit": 46366, "Ġsigned": 1419, "zi": 6182, "Ġplanetary": 33417, "Ġmerch": 29489, "Prem": 35132, "ĠFields": 15502, "Ġalgae": 25237, "pri": 13718, "ating": 1295, "Path": 42119, "cycl": 19297, "****": 30115, "ĠHan": 6090, "Ġaside": 4364, "utable": 41280, "Ġgrav": 20969, "Ġrealised": 11555, "++;": 49789, "Ġcontraceptive": 39068, "que": 3407, "Ġarchitectural": 19481, "ĠChamber": 7514, "docs": 44071, "ĠNGOs": 22986, "ospel": 46895, "ĠFranks": 32676, "Palestinian": 28875, "Ġwheel": 5964, "Ġimprovis": 36403, "aba": 6412, "Ġdimensional": 43654, "ĠDeL": 35240, "ĠMain": 4326, "zers": 29258, "Ġmultitude": 25180, "Ġ502": 39179, "ĠCoke": 26108, "Ġpredominant": 41546, "entimes": 32383, "Ġunders": 18983, "Ġnamespace": 49010, "reddit": 48724, "Ġhealthy": 2245, "orrow": 24805, "Ġpedigree": 30149, "ĠCollege": 1821, "Ġrepatri": 19668, "ĠAme": 28516, "ĠSiberia": 36554, "Ġapologize": 12844, "Ġnegotiations": 3377, "Ġencompasses": 27747, "Ġ108": 13955, "Multiple": 43253, "Ġcrafting": 25699, "Autom": 39184, "Ġlineup": 4451, "fight": 16695, ".............": 49170, "Ġwrink": 45218, "Ġtip": 4767, "icators": 39014, "grim": 44592, "ĠMAP": 36890, "[\"": 49329, "igslist": 48535, "Ġtaxpayer": 11827, "Ġstays": 10117, "Ġpriests": 15843, "ĠGL": 12209, "Ġestablish": 5242, "Ġtransaction": 2676, "Ġassortment": 25927, "ĠSirius": 24475, "Ġ1955": 24436, "Ġsust": 29237, "year": 180, "Ġelabor": 25499, "Ġaggreg": 26683, "ãħĭ": 49970, "ĠCountdown": 40308, "Ġsuspect": 1985, "Ġindic": 31171, "doi": 39159, "ĠValencia": 14567, "reement": 43563, "nv": 37594, "Amb": 36376, "iard": 27131, "Ġheats": 28966, "pping": 5435, "Ġrewriting": 40857, "Ġexcessively": 36785, "Ġbona": 33954, "Ġsounded": 12020, "Ġdefault": 6814, "axe": 45269, "Ġunw": 10963, "Ġretrieving": 43175, "olester": 44305, "ãĤ¢": 49017, "ĠArmy": 2938, "trak": 47642, "ĠHilton": 12700, "ĠColumn": 32212, "Ġuncertain": 9684, "wen": 11760, "ĠSchiff": 22143, "emb": 20506, "ĠSpears": 25888, "agogue": 38617, "idious": 43964, "lia": 14190, "Ġbreaker": 37169, "Ġeducated": 13527, "ovember": 46436, "aml": 47750, "Ġ(%": 48086, "ĠOutlook": 11011, "ĠRox": 22756, "366": 34357, "Ġpayout": 10106, "Ġtouring": 13440, "EVA": 33207, "ind": 2028, "\".[": 49070, "ĠNightmares": 47381, "Ġimpossibility": 44778, "Ġwhims": 29363, "gressive": 39292, "dash": 42360, "heny": 27168, "ĠNorthwestern": 14776, "674": 38715, "ĠBird": 9908, "ĠCase": 11109, "Ġrg": 49015, "(": 1640, "Ġbag": 3298, "Ġquotes": 11495, "Ġshots": 2347, "Ġinsulated": 36027, "edit": 45486, "Ġfue": 13081, "Ġsupplemental": 27634, "ĠEverywhere": 37691, "Ġchew": 34431, "Ġ259": 37315, "iOS": 45773, "ccess": 47862, "odka": 40677, ")!": 43002, "IST": 11595, "apo": 24812, "Ġvisiting": 3918, "Ġfurther": 617, "ĠIntake": 46793, "ĠPap": 11846, "essment": 38170, "ĠIncluding": 12526, "Ġmilestone": 9974, "ĠSett": 35082, "Ġslut": 44046, "ĠMicrosoft": 3709, "obia": 33693, "chenko": 25592, "Ġhoc": 36401, "Ġmoon": 6950, "anting": 30712, "Ġmyth": 17721, "ĠAd": 1614, "Ġspokesman": 1565, "ĠHealer": 48581, "Ġfer": 16022, "Ġhomework": 19122, "Ġpresumed": 23924, "Ġpus": 32349, "orb": 28027, "ĠCanadian": 1563, "ĠHuss": 36958, "Ġpurified": 45238, "ĠMort": 17457, "Ġrod": 21966, "Ġservice": 544, "Aug": 20415, "Ġdetach": 42919, "Ġdesp": 18690, "Ġdisembark": 37505, "Ġerr": 22379, "ĠRebecca": 10808, "along": 20774, "isphere": 48276, "ĠRy": 11861, "ĠDenver": 4465, "dding": 42753, "Ã°": 39398, "Ġnowadays": 25708, "Drive": 29279, "eder": 11736, "ached": 12552, "286": 30168, "otide": 46163, "Ġprepare": 3886, "ãĢģ": 47341, "Ġmurders": 13119, "Ġbiking": 26879, "Ġencounter": 6376, "Ġnewsletter": 3476, "mass": 27289, "³": 15264, "bleacher": 16243, "ĠSly": 40559, "taboola": 50039, "ĠForgotten": 43799, "Ġhon": 11006, "ĠPractice": 22084, "210": 22146, "ĠiP": 41002, "ĠOrleans": 4942, "Ġbuds": 32964, "ĠFor": 286, "relations": 36275, "Ġsurface": 4084, "Ġassumption": 15480, "Ġkicking": 10720, "Ġgravel": 26923, "Ġcowork": 37966, "ĠElectricity": 28501, "083": 41260, "ĠBake": 24138, "Ġwinger": 10331, "genre": 44205, "ĠHarmon": 25253, "Ġfiner": 37075, "Li": 41198, "Ġstartup": 9143, "mac": 15439, "ĠGarcia": 6603, "Ġardent": 34085, "ĠTreasure": 29361, "Rated": 47131, "Ġrhet": 44235, "Ġhelper": 39776, "ĠCrescent": 22226, "Ġsubscribers": 8291, "Ġcrumble": 38095, "Ġimage": 2274, "neau": 21957, "Ġextingu": 22913, "Ġcra": 19656, "Ġhung": 10601, "Ġmodern": 2297, "ĠDebor": 46501, "ATURE": 35576, "101": 12636, "ĠCas": 7233, "Enlarge": 47094, "Ġpecul": 47812, "WA": 8460, "Ġnation": 1226, "Ġartificially": 30768, "Ġpublication": 5362, "Ġoverarching": 33815, "Ġattracted": 7671, "Ġrampant": 18898, "ĠSex": 15516, "Ġdistribut": 43506, "zyme": 43700, "agra": 30100, "Crash": 46856, "ĠLenovo": 21522, "Ġtestified": 8147, "ĠPats": 25381, "Ġcorrosion": 37092, "const": 20836, "Ġbeliefs": 9734, "ĠMM": 24537, "endix": 45392, "Americ": 46109, "Ġcorrel": 46764, "rift": 23203, "Ġcity": 343, "ĠCyber": 12324, "ĠDance": 11101, "ĠLith": 26311, "ĠVitamin": 31172, "Ġrevived": 19096, "Ġpredec": 48737, "Ġautopsy": 15103, "OU": 5061, "Ġaccidentally": 13636, "Ġcytok": 45837, "ĠGO": 11932, "Ġwarns": 14331, "Ġcous": 46411, "Ġactivated": 14150, "Ġruns": 1237, "ines": 3141, "inement": 47706, "Ġbeating": 4108, "ĠIO": 38266, "Ġowing": 14395, "tall": 27924, "ifier": 24072, "Ġblo": 20869, "ĠOrchestra": 18200, "agles": 26007, "aged": 4628, "146": 27457, "Ġinstant": 10062, "Ġarri": 37530, "Ġburying": 34711, "Prim": 44015, "ĠCorn": 10217, "sector": 18658, "Ġevident": 10180, "ĠPSP": 36281, "Ġ168": 26372, "arf": 21377, "Ġresumes": 25094, "Ġcouch": 16433, "ĠCrack": 38760, "Ġfirearm": 9823, "went": 31135, "Rest": 31921, "Ġwheelchair": 14298, "Ġ210": 18661, "apixel": 21424, "Ġscreenshots": 33328, "digital": 29563, "ĠBrussels": 6497, "Ġgranting": 18379, "ĠEntertainment": 5528, "Ġcaval": 41869, "Ġmeditation": 20183, "params": 49237, "ĠMOD": 35179, "ĠOkin": 46979, "Ġmodifications": 24785, "male": 31336, "ĠAstros": 10938, "âĢĶ-": 44440, "ĠAda": 33202, "Ġsigh": 27305, "ĠMaur": 12381, "Ġmarket": 210, "amn": 40060, "Ġfeared": 9741, "ophen": 44738, "Ġdisgr": 25425, "Ġhelpers": 35755, "Ġ:-)": 48433, "6666": 48491, "ĠEisen": 27413, "acebook": 49657, "oder": 15362, "edly": 38441, "ĠFunction": 42419, "ces": 4643, "Ġcosmos": 42214, "Awesome": 47058, "Ġlottery": 11395, "Moh": 29880, "forming": 11847, "Ġsle": 18388, "Ġepis": 38862, "Ġemphasizes": 27995, "chrome": 46719, "Ġmoment": 1151, "Ġthere": 89, "Ġincent": 48169, "ĠNarr": 36455, "Ġnearly": 823, "ĠENTER": 37924, "ĠDayton": 16824, "Ġgn": 31021, "Ġfright": 32580, "Ġbehave": 18871, "uggish": 45283, "Ġchose": 4689, "ĠDumb": 37098, "edy": 14425, "ABLE": 13732, "ĠDefault": 35364, "ĠPopulation": 29350, "shadow": 33717, "Ġblessing": 14164, "output": 46234, "hyp": 33027, "vel": 5536, "Ġkidnapped": 15762, "ĠCooke": 26958, "Ġcertify": 33446, "vich": 31073, "bles": 11060, "Ġinvestments": 3227, "Ġunparalleled": 27571, "ĠEuph": 35027, "Ġfringe": 21997, "Ġconventions": 27712, "Ġbehaved": 30758, "Ġoutlet": 9455, "asca": 32083, "Then": 12948, "Council": 38625, "ĠIsrael": 1870, "icas": 31895, "processing": 39221, "ĠPrevious": 14422, "ĠKenn": 19082, "ĠRest": 8426, "Ġsoundtrack": 19834, "inition": 48038, "ĠIndust": 34859, "CC": 3376, "Ġtowns": 6815, "Ġconfront": 10749, "lis": 14496, "Imp": 30281, "ĠTotem": 47855, "Ġlunar": 21641, "Ġ139": 24404, "ORT": 12154, "Ġwheels": 10562, "Bind": 48703, "Ġknows": 2215, "Ġinclusion": 9290, "Ġcompliments": 33391, "ĠDocker": 42221, "ut": 1182, "ACE": 15949, "can": 7424, "Ġmysteries": 30621, "Ġlucrative": 11874, "ĠPalin": 30898, "ĠJudgment": 44319, "Ġinstalled": 5923, "Ġadventures": 18848, "ĠHeard": 30689, "ĠUd": 23917, "rough": 10344, "Ġcommissioner": 7236, "ede": 12820, "Ġbiography": 24613, "Ġweight": 2408, "ĠElectric": 7219, "iki": 8907, "DK": 44097, "Ġnifty": 37161, "Ġoddly": 33442, "ĠNETWORK": 31631, "ĠBash": 13117, "incent": 34457, "Ġlinks": 5678, "ĠAutism": 33438, "icals": 13764, "Ġdramatic": 5386, "aunts": 33774, "Ġreservoirs": 29896, "UME": 35137, "Ġwaving": 20615, "Ġkitchens": 28096, "ĠPIN": 34182, "Ġpopul": 36925, "Ġvo": 17377, "Writing": 16332, "ĠThailand": 6547, "Ġsam": 13049, "ĠAPI": 21013, "ĠIo": 35107, "ĠCodec": 48509, "ĠChosen": 43936, "ĠRelative": 27490, "Ġorganise": 23750, "Ġcreature": 20397, "NULL": 49728, "ĠVO": 36584, "Ġensuring": 6060, "ifferent": 47314, "ications": 29758, "votes": 45547, "Ġleft": 314, "Ġnonsensical": 42475, "Ġflashes": 25975, "Bank": 13532, "Ġpoor": 2129, "Ġassorted": 35987, "Ġconce": 21177, "anz": 14799, "Ġfriendly": 5192, "Ġbounce": 9952, "Ġlent": 20899, "Ġbarric": 19007, "antam": 26287, "answered": 47774, "ĠKnox": 12996, "name": 13650, "Ġconcluding": 23380, "Hand": 21292, "Ġseeks": 6330, "Ġ1903": 42429, "Ġaccum": 33232, "Ġthread": 15019, "Server": 47576, "ĠGP": 12571, "ĠRecently": 11800, "ĠNutr": 46857, "agus": 29962, "duction": 42705, "ĠMySQL": 46097, "Ġuncomfortable": 9800, "Front": 35985, "Ġfibre": 21060, "Ġerupt": 24850, "Ġhole": 4683, "ANE": 19621, "Ġdifficulty": 9600, "ĠAgo": 42259, "Ġballet": 22573, "ĠCONTR": 32568, "Ġdiscipl": 41352, "ĠTournament": 7647, "Natural": 42968, "ĠIsles": 35318, "Agent": 45443, "methyl": 46988, "Ġabbrevi": 40993, "Ġfoundation": 4811, "ĠWol": 13847, "ardless": 44543, "Ġfors": 43593, "vir": 28641, "2014": 16310, "Champ": 43225, "okemon": 49623, "Ġpowd": 41832, "icus": 31913, "Virtual": 46138, "eq": 41456, "Line": 18997, "Wheel": 43560, "Ġhugely": 13481, "Ġhyd": 13075, "Ġmedieval": 25818, "Ġdefendants": 9483, "ĠSapp": 37151, "ĠStephanie": 10694, "Ġargument": 4795, "Ġinquired": 38276, "Ġcoordination": 13141, "alone": 22446, "dig": 20098, "Ġyawn": 39654, "ĠYon": 27286, "Ġbehav": 49407, "eg": 3733, "Enc": 45780, "Ġclearly": 2563, "consider": 33394, "ĠDrinking": 36324, "ARB": 38118, "Su": 20689, "Ġtrout": 26136, "ĠArist": 37812, "Ġexplaining": 8926, "ricanes": 45956, "ĠRandolph": 24500, "IRE": 21126, "making": 5349, "Ġchang": 24622, "Ġfeeds": 17456, "ADE": 15197, "Ġ********************************": 43080, "Ġmonopol": 33332, "Ġagricultural": 7119, "Ġeviction": 26950, "IES": 7536, "leneck": 42041, "ĠThompson": 4171, "gold": 16472, "prising": 21434, "VIDIA": 49935, "ognitive": 45709, "ressing": 9828, "00000": 25034, "Ġundermined": 21167, "Ġfired": 2277, "eng": 3314, "ĠHollywood": 3049, "brand": 11638, "Ġrefuse": 10383, "Ġdestined": 19083, "Ġmayors": 23903, "Ġwarehouses": 23852, "ĠDepending": 22606, "Econom": 44494, "Ġbelonged": 14574, "mult": 42527, "ract": 15664, "ĠDetect": 18129, "ĠWorking": 11214, "oh": 2678, "ripp": 22872, "Ġie": 39420, "Ġruined": 19750, "ĠFO": 12866, "Ġincur": 30163, "dar": 20490, "agame": 48760, "Ġmysterious": 12754, "slow": 33234, "ĠHatt": 32930, "fund": 13858, "Ġmaneuver": 21698, "altern": 34268, "manent": 39713, "aa": 6621, "Ġflexibility": 8243, "nee": 14209, "cycle": 23060, "Wild": 30909, "ĠMondays": 23365, "Ġnearer": 38044, "Ġharmful": 11190, "FL": 7613, "ield": 8363, "Ġdiscuss": 2268, "Ġdisciplinary": 13999, "Ġcouncils": 14751, "ĠLever": 20844, "Ġ58": 4893, "Ġreturn": 671, "Ġtriangles": 45422, "BuyableInstoreAndOnline": 50228, "ĠElectrical": 29352, "romptu": 30467, "Ġinsult": 18566, "bare": 35219, "Ġ(),": 49038, "PLA": 43362, "Ġoverpowered": 39899, "ĠTwist": 36329, "Ġextinction": 23989, "adequ": 37462, "ĠSTAT": 27023, "Ġexpressly": 28706, "Ġfandom": 39401, "Ġunimaginable": 32797, "ANI": 18009, "ĠEmil": 22134, "ĠLank": 18499, "ĠPl": 3037, "Ġtransmitting": 39199, "ipient": 44392, "ãģ®éŃĶ": 50059, "Ġintellect": 36414, "ĠTL": 27017, "interesting": 42746, "flix": 47274, "Ġcoroner": 16489, "Synopsis": 49388, "Ġpossibility": 3302, "Ġtablet": 9995, "Ġpress": 1228, "ĠEnlight": 47014, "ĠWorm": 40800, "ĠHaley": 11443, "Ġenjoyment": 26611, "Ġdivorced": 18264, "Var": 27717, "Ġbetter": 357, "ette": 3398, "News": 5532, "eating": 29100, "Ġhar": 12280, "ĠOklahoma": 4020, "Changed": 49108, "Ġstrikeouts": 12383, "Ġuntold": 35921, "large": 11802, "Ġauditory": 44630, "ĠEleanor": 29396, "FIL": 46008, "006": 38049, "Ġsuing": 15449, "Ġboring": 15305, "ĠPeel": 26376, "indal": 45259, "(),": 49196, "Ġreplaced": 4209, "related": 3368, "Hom": 37778, "Ġanimals": 3122, "Ġprotesters": 4800, "Ġspaces": 5938, "=#": 49790, "Ġpoint": 477, "ĠSquad": 19200, "Ms": 13123, "?:": 36538, "Ġshown": 2343, "ĠMurphy": 5682, "holiday": 40580, "ĠDram": 32141, "abilia": 25626, "ĠHannibal": 41273, "Ġ167": 28833, "Ġant": 9876, "spoken": 28306, "ĠSher": 6542, "Ġenvironment": 1737, "ĠLIKE": 38227, "Pg": 47396, "Ġliberalism": 40023, "thy": 23875, "ĠGrape": 36109, "oi": 12467, "Ġmortar": 24650, "isha": 9268, "ĠMuss": 33812, "ĠADC": 42806, "Ġspoke": 1834, "ĠNation": 5857, "ĠNeon": 36349, "Ġretail": 2304, "ĠRousse": 22095, "wards": 17337, "ĠTek": 28451, "Ġtransformations": 39604, "Ġuptake": 33646, "Ġhairy": 42175, "respect": 27387, "41": 4006, "Ġnationally": 9852, "Ġbump": 8792, "There": 970, "ĠMandatory": 28666, "Ele": 28888, "Ġadventurous": 28339, "Ġresort": 5753, "Ġindications": 15832, "oles": 7003, "ĠVet": 29011, "ĠHouston": 2499, "ĠAE": 35722, "ĠRTX": 40810, "ĠNorton": 18378, "Ġsubscriptions": 22715, "Ġbliss": 30299, "Ġextremist": 14463, "Ġanti": 1475, "Ġreprinted": 44050, "ĠTrees": 32073, "ĠBeyond": 10261, "Ġinterface": 12332, "Ġeighteenth": 46111, "Ġcloning": 44246, "Ice": 38136, "ibilities": 38935, "Ġprints": 19553, "Ġreacts": 18538, "Ġ305": 29114, "itors": 9314, "oche": 18339, "iggle": 24217, "Ex": 9089, "Ġpropag": 31464, "cker": 8956, "ĠHerz": 26288, "Ġprow": 35603, "Ġfixture": 12319, "Ġmust": 531, "mer": 2089, "ĠEmerging": 18722, "ĠNaked": 37025, "md": 26296, "ighter": 24327, "ĠBarb": 12897, "ĠGAM": 42328, "Ġscripture": 41158, "Ġpat": 10512, ":(": 48329, "Ġdrown": 30431, "Ġworsening": 21319, "Learning": 42489, "ĠCharlie": 6127, "Ġcartel": 22001, "ĠKra": 16379, "Ġent": 3838, "Ġstakeholders": 7193, "--": 5579, "Ġtyping": 29691, "Ġ146": 24543, "Ġchimpan": 46222, "Eat": 43800, "Attempt": 47797, "Ġmiracles": 36893, "Ser": 28498, "Ġ89": 8572, "Ġtint": 32683, "ĠCY": 32854, "Pick": 40285, "Ġtreasury": 19081, "Ġgastro": 39678, "CRE": 45503, "Ġtall": 6764, "Ġbackgrounds": 14218, "ĠLOW": 37963, "hran": 43966, "Ġcontradicted": 35407, "Ġeffect": 1683, "ĠABS": 27388, "ocate": 22486, "diff": 32278, "Ġglob": 37544, "Ġshow": 311, "Sa": 33457, "August": 20041, "Ġvowed": 7588, "Ġguitars": 29589, "atory": 5257, "Bonus": 47368, "ĠLaws": 30070, "Phot": 41612, "ĠCommit": 36886, "ĠMemor": 31641, "flows": 17718, "ĠTy": 5957, "oval": 15273, "Ġblank": 15818, "lf": 13491, "ĠFacility": 18214, "Ġpodium": 11158, "Ġlate": 628, "Ġbuilds": 12095, "Ġ200": 1878, "ĠCorporate": 9299, "Ġnewly": 3862, "Ġrentals": 20498, "ĠKahn": 30636, "tailed": 27970, "Ġdeduction": 18349, "atomic": 45826, "ĠBurn": 7960, "ĠChandler": 16027, "Ġ32": 2107, "Kyle": 37468, "wrap": 45705, "Ġcent": 715, "ĠHHS": 30835, "Ġthrows": 6989, "Ġvillages": 9365, "Spons": 43753, "Ġsexually": 5912, "Ġscenic": 25015, "abolic": 39225, "game": 2670, "ĠFOIA": 43695, "Ġmist": 12241, "Ghost": 38856, "Benef": 47054, "ARDS": 38623, "ĠWarren": 5432, "oly": 15022, "ozyg": 48259, "Ġpg": 47194, "Ġpric": 35456, "Ġnotable": 8091, "ĠBaby": 10517, "pa": 6709, "ĠPit": 12670, "MIN": 24765, "Ġstatic": 25156, "Ġscreen": 2441, "ĠBal": 4317, "Ġadvising": 16442, "ĠSCHOOL": 32133, "Ġappet": 24959, "2013": 10684, "Ġ670": 38679, "Ġjur": 18603, "ĠSil": 8897, "depth": 11583, "lections": 30653, "ĠInterestingly": 18905, "ĠAlloy": 43497, "seek": 42876, "Ġflesh": 18940, "Ġperilous": 33873, "Ġassistants": 17385, "ĠâĶ": 46277, "Ġq": 2231, "ĠCrypto": 27159, "Ġdays": 360, "ĠFeng": 34723, "Ġfraternity": 19589, "ĠPAGE": 39051, "Ġtones": 23225, "ups": 4489, "Ġslap": 17605, "Ġpraised": 6425, "Ġinflamm": 48194, "acles": 26915, "ĠOnes": 39381, "Ġpivotal": 14125, "ĠHallow": 45020, "Ġkios": 27008, "Ġrevelations": 14613, "holders": 7509, "ĠTrader": 31999, "voice": 34076, "ĠJM": 39895, "Continue": 46982, "Ġpolicing": 13970, "\"><": 49995, "Ġbanking": 3454, "Ġregrets": 19078, "ĠForce": 3177, "Ġextras": 30109, "ramids": 42110, "Ġplotting": 22849, "information": 31480, "Ġaddress": 1100, "ĠGriffith": 16302, "ichever": 42063, "Ġplaza": 25681, "Rose": 24940, "Fuck": 44823, "Ġlends": 31473, "Ġshortest": 28617, "Ġresidual": 30848, "gr": 6504, "ĠDear": 12191, "ĠWrap": 35989, "ĠTer": 5094, "ĠRip": 20337, "ĠMali": 16193, "astics": 11890, "Ġeconomists": 9019, "ĠRab": 14040, "Ġexp": 4553, "Ġdecap": 38720, "ãĤ°": 49516, "ship": 24754, "Ġshockingly": 36804, "Ġvind": 21339, "traditional": 30172, "Hmm": 47519, "model": 21818, "Ġcenters": 5228, "ĠTakeru": 49486, "ĠAPP": 30235, "Ġascent": 33088, "Ġcensor": 37375, "athetic": 41658, "Ġro": 4533, "fee": 33763, "ĠSchwarz": 35286, "VEN": 32260, "ĠFidel": 30424, "uctor": 42618, "Ġindul": 20121, "Frank": 16025, "Ġinhibition": 44944, "OUS": 18024, "Ġhig": 46519, "Ġbere": 17738, "ĠCurry": 8320, "Ġfl": 2342, "Ġdefinitive": 17756, "Ġ218": 28405, "ĠShay": 19825, "Tim": 23031, "Ġasshole": 43870, "Emily": 41004, "ĠEquip": 44064, "Fl": 16197, "Ġquitting": 23913, "ĠTai": 15643, "ĠSomehow": 32735, "ĠmacOS": 32469, "ĠIg": 14879, "agog": 33395, "Ġprogramming": 8326, "ĠMens": 20730, "ĠTag": 12650, "pdf": 31494, "oak": 32111, "Ġcycle": 4943, "ĠEveryday": 37158, "ĠStephens": 13004, "âĨĳ": 49435, "Ġpartnering": 15882, "Ġprick": 40166, "Ġconstructor": 47073, "oston": 40415, "EE": 9993, "ĠLuna": 24089, "Ġengagements": 23607, "never": 20042, "ĠThai": 9130, "Ġpsychosis": 41116, "Ġguardian": 24413, "Ġslicing": 40341, "Bul": 40028, "ĠBenef": 40109, "Ġachievement": 8312, "Ġcreamy": 28110, "Ġmolecules": 20237, "ĠJacques": 24340, "ĠHades": 47626, "Ġtouting": 28818, "283": 32307, "Ġoption": 1973, "ĠPeoples": 14695, "Safety": 40592, "ad": 625, "Ġdj": 29831, "ĠMori": 32097, "Ġ132": 19376, "Ġcourse": 768, "Tickets": 44338, "ĠTory": 10886, "Ġnephew": 11884, "Ġpressured": 16842, "elve": 41120, "iencies": 18828, "Ġuntrue": 27944, "Ġcert": 21045, "bot": 12749, "ĠKur": 13830, "Ġ413": 39898, "Ġlament": 25532, "Ġdinners": 23864, "1500": 36559, "mod": 14377, "ĠJunk": 36104, "face": 9021, "LIST": 42634, "abul": 42278, "Clar": 44157, "Ġgunfire": 14211, "rol": 9396, "Ġdstg": 50199, "ĠPant": 16240, "ĠBringing": 31767, "ĠLavrov": 19977, "ĠBorn": 8912, "Ġmulti": 3228, "Ġrou": 16799, "ĠDave": 4475, "Ġpracticed": 18233, "ĠProcess": 19149, "ĠLuther": 11396, "rio": 12834, "ĠCanadians": 8522, "ONG": 9672, "ĠMoons": 43704, "ĠDuke": 5893, "åħ": 45895, "Foreign": 37221, "Ct": 47413, "Ġlaund": 35564, "esses": 38926, "ĠDesign": 7438, "Ġsprung": 31979, "Ġsquat": 31147, "Ġshaped": 14216, "Ġ388": 41109, "Ġharvesting": 23820, "Ġresurrected": 38952, "Ġshorter": 10941, "ĠIsis": 38931, "dis": 7779, "edin": 25590, "Ġrenewables": 26618, "Ġcut": 847, "ĠFrancis": 5075, "Ġreal": 588, "a": 102, "ĠVe": 10978, "Ġhandwriting": 39615, "urai": 38903, "dozen": 28680, "empt": 15318, "Ġshortstop": 17189, "Ġ1975": 14873, "Ġbloodshed": 27801, "sports": 23267, "Ġgum": 25008, "ĠTasman": 33384, "Ġpositives": 22298, "'?": 35661, "ute": 4467, "Ġgrief": 12903, "Ġroute": 3420, "Ġperiphery": 36605, "ĠPetty": 18867, "Ġprim": 9156, "Ġvisa": 8915, "ĠTransformers": 34379, "ĠDam": 8234, "âľ": 39817, "Ġso": 98, "Ġhandful": 6095, "Ġsurv": 48642, "ĠTex": 21718, "Ġjumped": 4262, "Ę": 50132, "Ġlodged": 15434, "Ġcontracted": 13196, "ĠFlu": 25404, "ĠPatrick": 3499, "OS": 3196, "ĠInitial": 24685, "ĠDiss": 36053, "ĠDin": 15757, "Ġdeny": 7631, "ĠMalt": 24694, "ĠTibet": 30822, "Ġlabel": 6929, "uben": 26517, "Ġpundits": 23663, "Ġnond": 29470, "Settings": 47718, "ĠChristopher": 5469, "ZE": 33288, "Ġhacking": 11597, "Ġ<": 28696, "ĠStrip": 12943, "ĠDISTR": 43798, "Ġmanner": 4737, "Ġplaythrough": 47757, "Ġcull": 29044, "Ġintermedi": 32531, "Ġmidway": 12898, "347": 32532, "Ġowe": 14866, "Ġ273": 37593, "Ġmes": 10969, "ascus": 47362, "Ġcomed": 30632, "elcome": 42557, "Ġindeed": 5329, "Ġhost": 1482, "ĠBezos": 17767, "Ġ1700": 33236, "Ġcor": 9240, "OVA": 44320, "ĠGov": 3483, "cel": 9736, "Ġunf": 9515, "ified": 3786, "Ġovercl": 45591, "pointers": 10257, "Ġuranium": 18734, "Ġinsert": 27545, "ĠLTD": 32567, "-\"": 45390, "Ġblond": 33072, "rolled": 18040, "Available": 47354, "ĠRobots": 38659, "ĠHunger": 27689, "Ġunderscore": 31508, "oha": 15202, "Ġcarbohydrates": 34215, "798": 40141, "Ġquirks": 41803, "Ġmeaningful": 6667, "Ġfreezer": 26430, "correct": 36064, "umped": 25844, "ĠFav": 24838, "'\"": 24464, "ĠZombies": 44118, "ĠROM": 33246, "Ġessential": 4499, "cul": 13300, "Ġwhispering": 42759, "Ġmisdemeanor": 13811, "ĠMaid": 19093, "ĠSERV": 45879, "Ġworkings": 32545, "298": 32646, "impro": 33491, "hab": 13899, "Kate": 34079, "Ġlong": 251, "Ġaccelerating": 17604, "ĠQuebec": 7534, "Ġinnings": 2699, "bos": 31957, "ĠPyth": 46439, "content": 10166, "ĠMcCabe": 16848, "ĠJolly": 37997, "Ġprudent": 22652, "ĠPony": 36682, "Ġprivat": 16884, "ells": 17150, "Qaeda": 25697, "Ġprisons": 14867, "CM": 18814, "violence": 32257, "bilt": 44386, "Ġcommercials": 23676, "ĠHig": 19664, "ĸļå£«": 50186, "judicial": 31094, "Ġstrokes": 17705, "Ġnoisy": 28269, "Ġlegislators": 10411, "ember": 22542, "bral": 44283, "ATT": 26107, "Ġalleging": 11537, "currently": 38501, "erved": 13539, "Ġflight": 2524, "Ġclue": 18664, "Ġsaving": 6549, "rozen": 38254, "negative": 33407, "ĠWaiting": 34844, "Alternatively": 47869, "color": 21685, "French": 28586, "ormons": 49186, "Ġ425": 32968, "Ġpled": 39595, "A": 250, "Video": 17967, "Ġadvisory": 7640, "orde": 17202, "Ġtomorrow": 3859, "Ġadjunct": 36038, "Ġbusiest": 16988, "Ġdetermine": 3094, "Ġbriefings": 30032, "Ġpreached": 36779, "Ġed": 4803, "ĠPages": 32502, "Ġvenue": 5584, "Ġinf": 4047, "],[": 49092, "ĠVanilla": 41457, "Eastern": 39229, "IAS": 43227, "Ġcaching": 44499, "996": 39659, "Ġheals": 43111, "Ġ1914": 34720, "Null": 49302, "Ġwartime": 29777, "rief": 24062, "anse": 31327, "ĠCount": 12440, "Dispatch": 34670, "Ġappeared": 1382, "Cro": 36537, "ors": 994, "Ġbracket": 16871, "ĠPrimal": 46711, "WAR": 25014, "eem": 33386, "Overall": 28965, "Ġmetals": 10340, "Ġfreshly": 23261, "Ġlair": 46502, "ĠVI": 11663, "Ġtilted": 36301, "hidden": 37392, "Ġoverheard": 36726, "ĠOperation": 13346, "Ġlift": 5258, "ICO": 13701, "Fa": 44663, "Ġpatron": 18528, "ĠFortune": 15938, "ĠXY": 44977, "violent": 28330, "ĠJared": 8790, "Ġterrestrial": 39056, "ith": 3432, "Ġvaginal": 34126, "arer": 21160, "Þ": 49944, "ĠEurope": 1005, "ĠGors": 45340, "ĠWallet": 37012, "izo": 23747, "Ġdemol": 24479, "ĠSig": 17427, "Ġil": 7675, "olson": 44140, "ĠNon": 6965, "Howard": 41051, "Naz": 46016, "Hyper": 46572, "cho": 11156, "Ġfared": 24779, "Remove": 47583, "ĠFE": 16852, "Ġrudimentary": 41879, "ĠJournalists": 24446, "Ġpractically": 15655, "miss": 17745, "ĠPart": 4657, "Ġtales": 20072, "Ġwhine": 45103, "clusion": 27953, "âĻ": 38718, "uttering": 29414, "ĠFrozen": 29372, "ĠPainting": 39720, "ĠBilly": 7835, "rupt": 14709, "Ġcareers": 8478, "Ġreinforcements": 33675, "Ġplaying": 816, "earable": 48819, "Ġdiam": 40641, "Ġmonstrous": 34957, "ĠSamp": 18706, "Ġnoticeable": 20228, "recent": 38696, "Ġcattle": 9440, "Ġneighbours": 10689, "Ġinteract": 10754, "ĠVirtual": 21741, "Ġfive": 292, "Ġphotographers": 16214, "alsa": 37987, "})": 49424, "ĠBC": 9543, "Ġacqu": 19071, "Ġpower": 476, "ĠEt": 8923, "Ġsports": 1612, "Ġcling": 32645, "Ġexce": 24395, "Ġliv": 32126, "Route": 43929, "election": 6414, "apeake": 21192, "Cor": 15228, "United": 20556, "Ġrectangle": 45140, "ĠSkyrim": 46218, "ĠAst": 8937, "grow": 36058, "ĠVIS": 36957, "ĠShape": 29937, "ĠPh": 4129, "lust": 27682, "terior": 33989, "Ġnetworks": 4836, "Ġsuites": 25200, "ULE": 39477, "sett": 31852, "Ġexceptionally": 20135, "Ġscaven": 35387, "Ġexisted": 13412, "Ġpastry": 29166, "Ġprecipitation": 13273, "ĠNag": 7729, "Ġprince": 13705, "Ġpores": 39172, "Ġfracking": 25752, "named": 26442, "Ġsighed": 44931, "ģ": 10172, "dies": 38707, "ĠLucia": 22959, "ombs": 33726, "Ġbacon": 18599, "ĠFren": 41174, "Ġpuzz": 47037, "Ġdelight": 13213, "Ġshadowy": 38482, "Ġerupted": 11376, "ĠRivals": 39579, "Sac": 39429, "Ġeyebrows": 22229, "ĠPos": 22464, "ĠDollars": 37702, "Ġidentifiable": 35432, "Ġrefugees": 4498, "Ġboasted": 21078, "Ġsuperintendent": 12498, "ĠSP": 6178, "pperc": 39609, "ki": 3144, "578": 38588, "created": 27367, "Ġplugins": 44645, "AD": 2606, "Ġnortheast": 9489, "ĠBAS": 17430, "ĠMcInt": 18855, "ĠCommonwealth": 8193, "491": 37676, "ĠSho": 17411, "Alt": 41622, "ãĥŁ": 49644, "iga": 11742, "ĠHO": 31528, "where": 8569, "Ġabsurdity": 40020, "generic": 47663, "ĠAero": 32363, "Ġdisciplines": 24148, "kit": 23199, "Ġwaterproof": 28126, "ĠClick": 2578, "rem": 5593, "Ġprogressives": 31627, "soc": 32460, "Ġbucks": 22574, "iosis": 38115, "Ġfireplace": 24672, "Ġunreliable": 31298, "North": 11073, "awed": 32211, "Ġpumpkin": 20571, "ĠTed": 8115, "Ġ980": 41165, "Ġadvent": 24945, "Ġ03": 15171, "Sub": 23055, "These": 4528, "Ġblankets": 20850, "Ġgrams": 14080, "Ġcassette": 41662, "ifting": 17274, "Thor": 42828, "ursed": 24417, "Ġparachute": 34872, "ĠTAMADRA": 50229, "abs": 10155, "HR": 16271, "Ġvector": 37681, "ĠLit": 17124, "Ġarsenic": 40115, "Ġhus": 33476, "Ġexpressed": 2327, "ĠAmph": 29103, "ĠCookies": 41200, "Sch": 18077, "Americans": 15085, "Ġsmallest": 15654, "ĠAdrian": 10024, "986": 40558, "ĠKenobi": 46892, "Panel": 46968, "ĠOliver": 7730, "Ġbiochemical": 44956, "ĠCommittees": 36320, "ĠFIRE": 30049, "ĠPower": 3029, "ĠLady": 4645, "Ġmin": 5251, "ĠCoach": 6021, "ĠCox": 8278, "Ġshitty": 43816, "Microsoft": 35460, "Ġannihilation": 43029, "gone": 28636, "Ġhand": 865, "inkle": 15673, "ARP": 30711, "ĠLists": 46113, "Ġspecializes": 17859, "Ġwasn": 938, "ĠTurn": 10812, "ĠPosted": 16171, "Ġdeclines": 11081, "estone": 18873, "486": 37202, "ĠEVE": 46748, "Ġpressure": 1164, "eker": 22193, "ĠRoger": 6682, "ĠDise": 48788, "ĠGuardians": 29371, "Ġhighly": 2200, "esson": 24711, "590": 33933, "------------------------------------------------": 49374, "Ġunfamiliar": 21942, "Ġstaging": 18039, "ĠSki": 21175, "Ġtravelling": 7290, "ĠPhiladelphia": 3378, "Ġpeaked": 21174, "othal": 49180, "ĠAgenda": 28193, "Ġfeminist": 17799, "ĠLX": 43908, "ĠOrig": 32432, "ĠBritt": 16278, "comed": 40478, "Ġbrist": 37135, "ĠComic": 20820, "Ġ185": 21358, "ICLE": 45544, "Ġcrotch": 42613, "Ġroofs": 26418, "Ġoverweight": 19755, "ĠLewis": 3577, "Ġmaps": 12879, "meg": 16258, "/_": 48119, "Ġbeds": 11646, "Seg": 42775, "worst": 24390, "ĠPositive": 25968, "Ġunderlying": 7482, "ĠLoad": 38355, "Ġmansion": 15906, "ĠRecover": 43747, "ĠScientology": 39213, "Ġkittens": 35640, "ĠSOL": 30352, "Ġhelic": 47699, "Ġmorality": 28241, "ĠTrust": 3101, "ĠFixes": 47443, "umi": 14676, "ĠSpecial": 3672, "Ġaunt": 15845, "centered": 32055, "Ġwants": 1072, "124": 22960, "oria": 7228, "Ultimate": 46427, "WARE": 47701, "Ġmoot": 30036, "Ġire": 25509, "Ġ38": 2843, "Ġstated": 2305, "rollment": 38913, "Ġcompetitive": 2695, "caliber": 29422, "Action": 36082, "Ġim": 4356, "ĠMary": 2708, "ĠDisplay": 17091, "kes": 7339, "anic": 26728, "Ġfooled": 31952, "Ġreviewers": 34910, "ĠVigil": 35042, "Ġenumer": 41949, "Ġpassengers": 3670, "ĠGreeks": 29658, "014": 37631, "Und": 42061, "£": 2469, "2000": 17472, "Ġobsess": 34668, "Ġmach": 20399, "328": 35252, "Ġparody": 32806, "ĠKyr": 17439, "Ġgenetics": 28848, "ALL": 7981, "1100": 40830, "Ġ24": 706, "ĠDaesh": 22308, "Ġsouthern": 3174, "ĠMarketable": 49182, "ĠPOW": 36306, "ĠAssets": 20741, "iy": 4911, "Ġglass": 4049, "ishop": 44517, "medium": 37661, "Diamond": 43390, "ĠÎ": 43662, "Ġdates": 5461, "elin": 29097, "Ġestranged": 20599, "isance": 42554, "ĠBruno": 14590, "Ġsheets": 12208, "ĠCorruption": 28756, "ldon": 28520, "ĠRav": 19321, "Ġexploded": 13008, "prot": 36299, "Ġclosest": 8099, "Ġimpover": 46081, "ĠAmid": 15880, "Ġsurrogate": 28247, "Ġbehavior": 3650, "ĠInnocent": 40797, "Ġskirts": 31296, "ĠLara": 21696, "ĠRegarding": 21255, "107": 19000, "hide": 37265, "Ġfolks": 5450, "Ġveterans": 4823, "Ġmounted": 13296, "Ġaligned": 14485, "Ġpitfalls": 34976, "Ġcontrols": 5656, "Ġobserves": 34649, "Ġrecycle": 29814, "Ġsaliva": 37612, "Ġbaptism": 40922, "enburg": 20533, "growing": 11600, "Ġpe": 3723, "ĠSyria": 1854, "Ġfrag": 24275, "Ġmanners": 35217, "erver": 39540, "Ġbr": 5378, "Ġindustrial": 2683, "Ġroutinely": 12880, "448": 36246, "Ġreception": 7362, "Ġtofu": 40376, "Ġusefulness": 40301, "Ġsomewhat": 5568, "yout": 49297, "Py": 42734, "graded": 9471, "Would": 29042, "Ġdomestically": 24164, "Ġresidues": 44701, "hound": 29344, "ĠSkin": 21814, "scar": 25713, "Ġincons": 40817, "Ġtiny": 5262, "Ġcreatively": 34208, "Ġ48": 2929, "ĠGraham": 4572, "loe": 15290, "piracy": 40780, "Ġholidays": 6875, "ĠDefendant": 42095, "wana": 19102, "',": 3934, "Ġpublish": 10732, "ĠAdult": 20395, "Ġslab": 32235, "Ã±a": 14379, "endars": 47407, "HCR": 41022, "ĠSaban": 21983, "Ġaroused": 42941, "ride": 23167, "Ġbeginners": 34476, "Ġpandemonium": 45235, "Ġassum": 46685, "lement": 13767, "Ġsteering": 12216, "Ġhumble": 14083, "ince": 15062, "ĠAustral": 38312, "ĠRNA": 34062, "Ġorbiting": 35065, "Ġuniversal": 10547, "Ġsophistication": 33327, "Ġshorts": 13344, "ĠNico": 22544, "whelming": 26019, "ĠPt": 42191, "Ġbung": 26459, "Ġdeposits": 8874, "inatory": 42350, "Ġconfidence": 2123, "her": 1843, "Ġthinks": 4265, "ĠNG": 36808, "Ġdebugging": 47021, "Ġobservational": 41398, "^": 35227, "ĠLoll": 39702, "ĠPope": 8509, "Care": 16431, "Ġscient": 47556, "Ġredacted": 33706, "Ġprey": 18644, "Power": 20645, "ĠCruise": 15360, "Ġ51": 4074, "466": 38620, "Ġfootballer": 19931, "osure": 42971, "Ġdesign": 1521, "Ġsaint": 31887, "Ö": 46030, "ĠFeldman": 30491, "ĠDARK": 46412, "242": 28698, "618": 33225, "Ġsingular": 23429, "ĠCricket": 10424, "Edge": 37054, "gru": 34497, "ĠCertainly": 20240, "Ġverbally": 27054, "cy": 4469, "ĠMiner": 20710, "Ġascend": 33290, "Ġsubs": 18621, "iens": 27187, "ĠKash": 22242, "Ġassisting": 13390, "Ġquarrel": 39486, "Ġcompromised": 13969, "inding": 24088, "cli": 48556, "feld": 12706, "Ġnab": 21885, "Ġtwist": 10619, "ĠHug": 30581, "ĠNursing": 24172, "ney": 2596, "ĠGutierrez": 23619, "Ġdrafts": 28233, "Ġexcited": 2283, "ĠClock": 31806, "Ġquickly": 1335, "Serv": 44175, "Ġstride": 22265, "Ġdebilitating": 29664, "ĠStud": 24911, "Ġ-=": 49826, "ĠStop": 12457, "Ġale": 17440, "Ġwhe": 33116, "ĠPas": 11920, "olean": 48547, "Ġmorph": 38675, "ĠFargo": 8044, "ĠGarner": 21059, "Ġexploding": 28976, "840": 34243, "ĠVog": 21723, "Ġactivity": 1940, "Ġpatriarchy": 40939, "Ġmuttered": 46286, "Ġsubjug": 42758, "ĠMend": 8404, "andom": 46861, "ĠDoor": 21405, "Ġcharisma": 33429, "Ġamazing": 2770, "\\\\\\\\": 49964, "ĠRandom": 34638, "ĠOfficer": 2817, "mbudsman": 24565, "marine": 37746, "seen": 24196, "Ġastronauts": 21904, "ĠFebruary": 902, "Ġpushes": 16418, "297": 33342, "Ġestablishing": 10584, "ĠDiff": 33163, "Ġ63": 5549, "ĠConway": 13896, "ĠProtoss": 49737, "682": 39593, "ĠFreddie": 13220, "ĠRece": 27098, "Ġdisplays": 8612, "ĠGalile": 43583, "Ġpests": 31961, "ĠYugoslavia": 37869, "ikarp": 47169, "786": 38925, "Ġdownt": 29407, "Ġhints": 17878, "isa": 6619, "oner": 9604, "Ġcritic": 7745, "\"\"\"": 49849, "Ġphilosophers": 44267, "Ġfishermen": 16516, "ĠRuby": 19642, "ĠLands": 24380, ",\"": 60, "ĠWitcher": 45053, "Ġuncovered": 13526, "ense": 9401, "inflamm": 46655, "ĠâĪ¼": 49447, "Ġcomplexity": 13879, "TYPE": 48710, "ĠAbsolutely": 23743, "Ġvisc": 45694, "Ġunfl": 29747, "bly": 27104, "Ġforming": 12748, "Ġdr": 12402, "ĠNy": 8606, "Ġicon": 9360, "460": 30875, "ames": 12336, "riend": 36619, "Ġknight": 39541, "Fe": 29037, "Ġboss": 3504, "ĠKier": 15932, "general": 15841, "doing": 30012, "Ġcondemn": 15182, "ĠEmail": 3593, "ced": 7618, "Posted": 31195, "ĠGrand": 2374, "ustration": 36852, "Latin": 44348, "ĠClinton": 2235, "Loading": 46691, "ĠLoving": 34418, "ĠHearth": 46998, "ĠNova": 11617, "Ġbiodiversity": 28809, "ĠHH": 42339, "Ġantennas": 38964, "Ġbackend": 43159, "Ġverse": 26346, "Ġproceeded": 18254, "Ġgalactic": 44047, "Ġsummoning": 43748, "ozy": 29005, "Ġgrain": 10924, "oons": 19375, "ĠRogers": 7541, "Ġendif": 49997, "Impro": 46101, "osing": 10174, "ĠPresence": 43340, "dat": 36146, "Ġlethal": 14326, "ĠSomew": 43618, "NM": 31156, "ĠBrookings": 33725, "Ġunic": 41221, "Ġrevisit": 23222, "variable": 48123, "Ġtrunk": 21946, "Ġapprovals": 15733, "ĠAv": 5080, "Ġextending": 9148, "Crit": 46517, "ĠMoon": 5648, "cu": 16312, "Ġallocations": 28823, "ĠCRA": 31461, "Ġgeometric": 38985, "exec": 22342, "ussion": 40824, "Ġconspir": 31150, "Ġharmonic": 46336, "Pic": 16185, "resources": 40897, "Ġultimately": 3284, "Ġgreat": 372, "ĠSocialism": 44959, "Ġarchaeologists": 37325, "ĠTub": 27773, "ĠDirectors": 12131, "called": 4155, "fixes": 48044, "Ġminds": 7283, "ĠLegions": 48529, "Ġorbit": 13435, "Ġhumanity": 9187, "protection": 37489, "urious": 35367, "olver": 35934, "Ġfighter": 7251, "urn": 8629, "757": 38127, "Ġpet": 4716, "ĠCheong": 44045, "ĠSudan": 6312, "Ġred": 1275, "ĠGlobal": 1849, "iya": 10252, "Muslims": 40658, "ĠFlan": 21142, "Nic": 31988, "Jose": 33011, "Ġextensions": 21141, "Loop": 47736, "itu": 15998, "Ġhim": 123, "ĠPants": 42616, "Ġclassy": 30228, "party": 6493, "ĠAo": 42169, "Ġdelinqu": 35135, "Ġintervals": 29087, "Ġrate": 731, "si": 11000, "ĠNad": 7157, "arre": 19205, "ĠDegree": 27631, "Ġportion": 4745, "Ġinquest": 20886, "Ġdictators": 35451, "Eh": 45435, "Ġenclosure": 30654, "The": 133, "Ġrotated": 39187, "Ġentertained": 23979, "ĠNAFTA": 13783, "Ġseparate": 2559, "Js": 44962, "Ġexercising": 20203, "ipher": 38914, "account": 36617, "BUG": 48905, "ĠKNOW": 37279, "ĠKimberly": 19278, "Ġworking": 447, "Four": 22113, "Ari": 30195, "capt": 18543, "Ġvacations": 28177, "Ġfals": 22461, "Ġpick": 1339, "olph": 32489, "ĠChannel": 5331, "ĠDates": 32355, "thin": 31507, "Ġblames": 23079, "ĠPassing": 37467, "Ġpixels": 24983, "threatening": 10940, "Rob": 18776, "Ġforfe": 31844, "ĠDrugs": 21731, "ĠMir": 6512, "Ġfrogs": 38072, "scoring": 15564, "adelphia": 45929, "Ġchecking": 8405, "Ġ346": 40355, "Textures": 49851, "Ġalbeit": 13176, "Ġpools": 16326, "Application": 46345, "NE": 9009, "uls": 11418, "ĠLibya": 7662, "Ġexception": 8219, "Ġsignificance": 11382, "Ġdemolished": 20766, "ĠGerry": 23484, "ĠZimmer": 20488, "plings": 34372, "Ġpollut": 44960, "ĠOrganic": 24349, "Ġprize": 4588, "Former": 12815, "lect": 17601, "Luc": 20793, "Ġcannabin": 49693, "Ġmoments": 3423, "Ġ173": 30011, "Ġcrackdown": 9105, "Ġbulls": 21865, "ĠUsing": 8630, "Ġtro": 14168, "ĠCran": 18515, "rate": 7954, "Ġreverted": 41411, "Ġbright": 4520, "ĠJohnny": 8781, "ĠReneg": 38901, "stru": 23543, "Ġded": 22761, "stack": 41590, "Ġfri": 40404, "Ast": 39021, "Ġstricken": 35876, "ood": 5715, "Ġhypothesized": 45936, "Ġparalle": 46515, "ĠExpedition": 36142, "ĠOlympia": 27984, "Ġinterpreted": 19912, "Terry": 43062, "Ġcoupon": 22939, "ĠEssex": 15252, "Ġbreathing": 9589, "Catholic": 42799, "Ġinsanely": 38864, "ĠVital": 23911, "Ġcommence": 19403, "ĠEug": 20926, "Ġdepl": 28156, "Ġvampire": 39093, "xxxx": 47596, "Ġaccelerator": 31463, "uncture": 48566, "oscope": 31468, "Ġrev": 6910, "ĠBuckingham": 18786, "Ġsandy": 33813, "uch": 4272, "Ġrighteous": 37909, "abel": 14286, "xus": 47353, "ĠTitanium": 42533, "ĠAlz": 42794, "este": 13967, "ĠCrim": 22548, "pl": 2911, "Ġdetecting": 30985, "Ġconvicted": 3828, "Ġmail": 7107, "Woman": 41075, "Ġvis": 17737, "Ġlodge": 24442, "Ġni": 10265, "iliar": 40484, "ADA": 15779, "Ġbuffs": 41953, "opening": 12211, "ĠFourth": 11035, "Ġabs": 15428, "Ġwield": 30626, "Ġesche": 33404, "eking": 25558, "Ġreminding": 19327, "GOP": 43070, "Ġperformance": 819, "ĠDanny": 6937, "<pad>": 1, "jam": 26464, "Ġrestructuring": 8183, "Ġx": 3023, "Ġengulfed": 20965, "Ġchanted": 23179, "âĢ": 17, "Ġcollectively": 14332, "ĠTarant": 33005, "326": 35766, "iour": 39192, "ĠFraser": 11784, "ĠBoyd": 14449, "Ġcomplement": 14364, "Ġoutdoors": 13384, "ĠWilson": 3095, "Ġdex": 47929, "Ġselects": 38845, "gest": 10403, "Ġspots": 5284, "row": 4610, "ĠStudy": 13019, "chy": 17414, "Ġanatomical": 45457, "rences": 46957, "Ġ''": 12801, ".-": 3358, "Ġroadmap": 25291, "Ġsale": 1392, "Ġpersonalities": 15469, "externalActionCode": 50178, "Ġdisguise": 29052, "herry": 34159, "Ġcrochet": 44265, "season": 4162, "Ġprojections": 8979, "Ġartificial": 7350, "Students": 29413, "ĠQuestions": 18964, "ĠEdinburgh": 9652, "ĠHeb": 31958, "ts": 1872, "cend": 34097, "metal": 32961, "Ġemphasized": 12843, "ĠSk": 4058, "419": 37383, "Ġpreserve": 8415, "Ġads": 5814, "Ġacres": 6419, "ĠClifford": 20791, "ĠAzerb": 49249, "Ġhereditary": 40633, "Ġvillagers": 17603, "Ġinjured": 1710, "nan": 10197, "Ġlakes": 17529, "aviour": 38282, "!)": 13278, "æŃ¦": 49833, "Ġimag": 26031, "ĠParam": 34559, "agements": 46296, "ĠShooter": 41148, "ĠChanges": 25065, "Ġbystanders": 31504, "ĠLumia": 41234, "DA": 3134, "BBC": 28713, "scribed": 31623, "Therefore": 32730, "chev": 42074, "Ġconduc": 46341, "Ġwithholding": 25661, "Construction": 43147, "Ġscenery": 26815, "ĠFee": 30745, "Ġsleeve": 24150, "291": 33657, "Ġinduct": 14663, "ĠCO": 6247, "tted": 32368, "ĠAccounting": 30253, "ĠCubs": 7604, "ĠBalance": 26193, "787": 38444, "Ġdeclass": 37363, "translation": 48235, "Ġcached": 47622, "Ġindirect": 18677, "Ġarchitectures": 41885, "ground": 13981, "ĠNumbers": 31415, "ĠsrfN": 50237, "guide": 43415, "Jew": 44948, "ĠContinuous": 37737, "Ġconvoluted": 40200, "ILLE": 35025, "}\\": 49712, "ĠResources": 5187, "makes": 39082, "Ġsimulator": 35191, "ĠReceiver": 40424, "Ġ407": 32301, "manship": 17187, "ĠCycl": 25544, "ĠLenin": 37632, "ĠExplore": 19526, "emp": 37655, "Ġcuriosity": 20610, "Ġstint": 9454, "fin": 13597, "ĠTheater": 10112, "ociated": 47422, "Ġfearing": 21510, "ĠShinji": 44972, "ĠReincarn": 49274, "Ġplurality": 43285, "Ġenhancing": 15550, "rox": 31726, "Ġlieutenant": 20362, "Ġlizard": 41771, "Ġvinegar": 25271, "Ġsten": 41281, "ĠRug": 29599, "ocusing": 34722, "Ġtrack": 1349, "Ġwoodland": 35773, "ĠViv": 12701, "ĠMacy": 17674, "ĠRub": 12239, "king": 7037, "ĠFormat": 43825, "brids": 47050, "inois": 36001, "rop": 6884, "0001": 27623, "519": 39327, "ĠThrow": 28106, "ĠTrojan": 36481, "Ġdrawback": 41113, "ĠPeak": 19704, "astered": 34367, "\\)": 49489, "Ġbattleground": 29783, "ĠAcceler": 27923, "ĠKr": 10991, "JO": 39131, "263": 29969, "ĠLF": 34463, "ĠLeth": 35764, "ates": 1626, "WI": 29674, "Ġhalt": 8463, "iments": 25132, "Ġshields": 31768, "ĠHG": 34327, "Ġsync": 22785, "ĠArchitect": 29474, "Ġbacklash": 10279, "ĠFactory": 16810, "ĠLevels": 41432, "Bob": 25158, "ĠRicardo": 19672, "ĠCookie": 34662, "Ġdatabase": 8503, "aspberry": 48515, "ĠWP": 26218, "Ġâī¥": 46422, "window": 42996, "ĠFN": 38721, "ñ": 50095, "Ġwearable": 23541, "ĠSketch": 42916, "Ġhalfway": 13177, "Ġsem": 9031, "Ġmotel": 25397, "mor": 15188, "Ġreform": 3114, "Ġnegativity": 30269, "umblr": 48220, "Ġvalue": 923, "Ġfallout": 15046, "inders": 37861, "ĠN": 234, "ame": 4344, "ĠCorbyn": 10113, "IF": 7025, "ĠPhilly": 19077, "Gar": 31626, "Ġill": 4812, "aleigh": 42359, "++": 42964, "Ġpresidential": 1939, "Ġmechanic": 25682, "ĠMale": 21361, "Clark": 36243, "\"],": 49177, "anne": 8799, "Ġappl": 45432, "Ġ67": 5545, "Ġepit": 22201, "iers": 4733, "UI": 18157, "izable": 38142, "ĠCareer": 18792, "ĠSold": 26456, "Ġbeware": 36798, "rame": 38007, "Ġdeems": 35214, "ĠAppeal": 16049, "Ġsharing": 3565, "Ġtx": 48726, "ĠDie": 6817, "atars": 40487, "Ġcaut": 45948, "But": 1708, "Â©": 14800, "Ġprotocols": 18956, "Ġmajestic": 33696, "hate": 33990, "Ġmembership": 6332, "oreal": 43434, "ĠBatman": 17923, "ĠIl": 8485, "Ġconcedes": 37210, "ĠPerception": 45679, "Ġinterviewing": 21514, "Ġbeck": 36712, "ISO": 43535, "ill": 1873, "Ġconsent": 7132, "ĠVa": 9414, "Ġserpent": 43759, "grade": 8425, "Ġbloc": 7667, "ĠQuan": 39828, "server": 33806, "Usage": 49270, "matter": 43956, "2019": 10626, "Ġcoun": 30335, "470": 29748, "ĠEcho": 11348, "Ġ239": 30716, "fixed": 43713, "jing": 38310, "Ġheartbeat": 28288, "ifle": 30715, "Ġcollagen": 39248, "ĠBenny": 30917, "Ġresides": 26327, "Ray": 24185, "ĠPhot": 23769, "Ġcoma": 24314, "UP": 9673, "eers": 32596, "Ġsediment": 31031, "ĠJedi": 20980, "ĠFunds": 17114, "Admin": 48175, "Ġmoreover": 41353, "ĠAbu": 4896, "ĠWORK": 32008, "224": 28835, "Ġclinic": 8474, "Ġ3": 155, "rod": 10774, "NN": 20057, "Ġrural": 3826, "holding": 25176, "Ġscheduled": 1768, "Ġonwards": 26485, "Ġshop": 2792, "ĠGeo": 29147, "too": 15605, "zing": 10293, "ĠBosh": 38973, "Ŀ": 46, "Ġimpe": 19828, "ĠMild": 31426, "Stream": 36757, "mem": 25683, "Although": 13863, "Ġswim": 6966, "Ġdoing": 608, "Ġrandom": 9624, "Ġprototyp": 40004, "RES": 32030, "ãĢ": 48516, "rican": 45215, "Posts": 45916, "ĠProductions": 20350, "rossover": 44187, "Ġinnocent": 7850, "Ġunpop": 48489, "Ġreimb": 28248, "Ġhist": 33945, ":,": 46686, "Ġseam": 27595, "Ġcommittees": 11429, "ĠIII": 6395, "Ġmines": 12321, "ĠKabul": 15767, "Ġaccountability": 9563, "Ġincub": 23125, "Ġsummarizes": 43668, "ĠRace": 8989, "ĠInvestigations": 22334, "ĠLOC": 27560, "Ġstops": 6897, "fman": 30717, "ilus": 37831, "ĠHut": 21401, "Ġrevers": 33113, "raised": 33161, "throp": 36983, "akens": 45830, "Ġshar": 29816, "Ġreeling": 21589, "Ġdiscussions": 4404, "Ġseparated": 8254, "Top": 14323, "âĹı": 49093, "Ġfr": 6664, "Ġcalculator": 37024, "Ġunpaid": 14907, "ĠEl": 1448, "Ġloose": 7082, "Ġphilosoph": 44997, "Ġeffected": 36689, "Ġcrabs": 37669, "kid": 30704, "ĠSunni": 15014, "Ġproceeding": 19635, "Ġreforms": 4907, "Depths": 49952, "ĠGiants": 4608, "ĠHandbook": 44052, "ĠCorrection": 35648, "LB": 29920, "dimension": 47987, "button": 32135, "ĠSn": 7500, "uba": 10452, "Ġmanure": 37187, "ĠRenault": 14833, "ameda": 25108, "Ġiteration": 27304, "ope": 9877, "Primary": 46604, "Ġconnected": 3665, "Ġswore": 34576, "ĠPyr": 45474, "ACP": 38330, "Ġviable": 10676, "Ġhump": 34314, "Ġhardship": 20802, "Ġcrew": 3419, "animal": 41204, "Ġdefended": 7194, "ĠOlympic": 3336, "ĠiT": 43536, "ĠTra": 8221, "Ġboasts": 10902, "Ġtuition": 12263, "ooter": 15917, "Ġcalam": 28857, "Ġphil": 43091, "psych": 33844, "ĠHulk": 31318, "ĠCoin": 17203, "deen": 42768, "Ġplus": 2704, "Ġurine": 20987, "ĠRobertson": 11951, "Ġintense": 5676, "iddy": 25196, "urable": 24517, "ĠDraw": 29109, "Ġretreat": 11298, "Ġharms": 31532, "ĠWritten": 23973, "âĢ¦\"": 23962, "cre": 34868, "flame": 45992, "ĠChron": 41020, "Ġfeel": 619, "Î½": 47118, "ĠTup": 28998, "Ġmetabol": 41134, "ĠLansing": 22728, "ĠSteelers": 7643, "Ġkingdom": 11673, "Ġmattress": 24866, "ĠDign": 35291, "Ġcorrespondence": 25778, "cele": 31828, "ĠViper": 42784, "Ġironic": 25553, "Ġsuggestion": 10791, "Ġgripped": 31082, "00": 612, "Ġentrepreneur": 11777, "sense": 36794, "Ġ234": 32607, "ibility": 12203, "Ġoil": 681, "Ġnative": 3763, "Ġ3000": 23513, "ECT": 15004, "ĠArpaio": 27261, "exper": 26786, "oil": 14189, "Ġpediatric": 18559, "conom": 35706, "wagen": 42099, "ĠChip": 11055, "Ġrevised": 7692, "ĠMalk": 28037, "put": 9179, "Ġboosting": 11606, "Ġmentally": 10072, "Ġuses": 2939, "Thumbnail": 48230, "Ġwinning": 1298, "Ĩ": 27819, "ĠChristmas": 1619, "ĠFund": 2896, "ĠNapoleon": 35767, "Ġtable": 2103, "Ġexpressing": 11509, "loop": 31290, "Professor": 44385, "alkyrie": 49289, "ARD": 11250, "ĠFalk": 21393, "izers": 11574, "Ġvotes": 2834, "ering": 2961, "Ġuh": 37463, "version": 21747, "ĠPol": 6189, "Ġstabilized": 28725, "Ġman": 313, "Ġreferrals": 29439, "],": 7479, "caster": 15543, "ĠFuk": 32846, "Ġramps": 27465, "Ġtriumph": 10121, "versible": 46092, "Ġacrylic": 36889, "Mbps": 36030, "Ġstanding": 2934, "ĠLeader": 5337, "wayne": 20143, "rug": 12476, "Ġelectr": 17995, "ĠTemper": 18465, "Ġincorporated": 14948, "atch": 11175, "ĠRockets": 11476, "Ġvalidate": 28754, "Ġclean": 2382, "lington": 18487, "comings": 47657, "Ġflashing": 22643, "ĠCircus": 31194, "Ġforth": 7264, "Ġphilosophical": 29690, "Ġbrokerage": 9196, "lower": 29668, "Ġthefts": 25154, "raf": 13883, "ĠRik": 41636, "sweet": 32588, "gdala": 49538, "Ġattend": 2725, "Ġwandering": 26884, "ĠRegister": 10315, "ti": 8063, "Ġteachings": 29500, "ĠStat": 15420, "382": 35178, "ĠKansas": 3110, "Ġattitude": 6784, "Ġmeetings": 2891, "Ġlum": 31962, "Ġaward": 2354, "ĠAVG": 44619, "ĠMaterial": 26188, "ĠNigel": 16734, "Ġtargets": 3247, "scientific": 43723, "Ġbrim": 40773, "284": 32769, "Club": 17875, "MAR": 36659, "Ġtransient": 35588, "Ġlayouts": 41993, "Ġtherapists": 32464, "Ġon": 15, "ĠCur": 6781, "Ġmaturity": 14207, "Ġ###": 22560, "Kar": 28759, "ĠMalta": 15977, "Ġoverlay": 37829, "Ñģ": 36709, "Ġsuperpower": 36184, "\\\\": 48669, "ĠVoyager": 38438, "kamp": 21170, "Ġsinging": 6970, "Ġmund": 9500, "Ġworld": 232, "Ch": 4771, "connected": 21618, "ĠTelesc": 47963, "Ball": 32983, "ĠMarco": 10425, "Ġreferred": 4997, "Ġbacteria": 9436, "aking": 7520, "ĠGrill": 15697, "rh": 20378, "Ġbeaut": 28651, "Ġusb": 49030, "Ġdecree": 20156, "Ġbold": 7457, "ĠWang": 9705, "Ġ2008": 2266, "Ġblackmail": 23616, "ĠVoting": 22774, "Ġmemorandum": 20834, "Ġreuse": 32344, "2015": 14420, "Ġmismatch": 37109, "Ġdisabling": 41625, "ĠWatts": 16716, "Ġabandoning": 23625, "gian": 42859, "Ġblueprint": 21057, "ĠMitchell": 5275, "ĠMunich": 10489, "ĠRegional": 4722, "Ġ396": 43075, "Ġcart": 9727, "uffed": 16368, "Republic": 35663, "Ġtheology": 37007, "rower": 40956, "346": 34088, "ĠReligion": 34530, "Ġpyramid": 33344, "..................": 49389, "Ġdisconnected": 30005, "Ġremained": 2442, "sub": 10936, "Ġsuspicious": 7775, "ĠAA": 14121, "Ġentities": 8866, "Ġmanufacturers": 4738, "ĠMilton": 16612, "INGS": 10942, "ĠHogan": 12468, "Ġskate": 12800, "Ġworkout": 10533, "ĠNex": 21917, "word": 14742, "testing": 33959, "ĠChili": 32878, "merce": 48908, "ĠREM": 30199, "Ġcanv": 26550, "avid": 23656, "Ġbras": 34904, "B": 387, "Ġç¥ŀ": 49956, "AX": 26624, "educated": 26414, "ĠLouis": 3217, "owa": 18530, "ĠWomen": 2691, "ĠCarrier": 29276, "ĠStuart": 10125, "Ġpacking": 16404, "strike": 35023, "lik": 16741, "Ġmitigation": 23336, "Ġdarn": 33800, "ĠLex": 14786, "Patrick": 32811, "ĠTimeline": 41600, "Ever": 27172, "Ġpanc": 27974, "asa": 8810, "Ġassociates": 11904, "Ġ1973": 14757, "ĠSTEM": 19652, "ĠCop": 9351, "Ġcurrents": 28124, "Ġconvict": 25768, "Ġhandwritten": 30414, "Ġtransmitted": 20579, "Ġtransparency": 7218, "Ġpseud": 43269, "arna": 25573, "ĠReeves": 22777, "ocaust": 43328, "ĠInstrument": 28559, "Ġcontra": 15441, "ĠNurse": 25651, "Ġbleed": 33096, "ĠSupplementary": 46846, "Ġcareer": 756, "ĠGRE": 34305, "ĠOFF": 21097, "Ġdisposal": 12307, "Ġ09": 12087, "Ġpall": 26365, "vation": 19914, "Ġchanged": 1714, "atron": 44404, "Ġradius": 29943, "Ġbec": 44949, "ĠactionGroup": 50190, "ĠVag": 38840, "Ġrm": 45900, "ĠAlive": 32190, "ĠKislyak": 31027, "Uk": 40264, "ĠLew": 11218, "Ġ126": 18461, "AA": 5596, "Ġinvasive": 19341, "Ġschool": 334, "Ġmouth": 6085, "Ġcongress": 12442, "avorable": 42112, "Ġicing": 30188, "Ġ233": 31738, "Ġcorrid": 48649, "Ġcontinuum": 40764, "Ġbatters": 15207, "Ġstitching": 39815, "Ġtaxed": 25116, "Ġvelocity": 27229, "ĠWard": 5986, "ĠSlime": 47387, "EFF": 28991, "ler": 1371, "gradient": 49433, "classes": 44770, "ĠWH": 12707, "Ġhectares": 16618, "alach": 45551, "DJ": 31050, "Ġskeletal": 39351, "Ġisolate": 27038, "ĠBlast": 31610, "als": 1536, "either": 40053, "position": 14413, "assion": 22947, "sed": 28308, "rums": 31860, "ĠSoldiers": 28334, "Figure": 40683, "ĠProceed": 23927, "Ġloses": 13585, "ĠRecent": 12845, ".,": 482, "Ġlonely": 20100, "iddles": 40741, "SQL": 46608, "thood": 45277, "Ġseed": 5018, "ĠDoug": 6289, "ĠShib": 41037, "Ġexpectations": 2113, "stem": 40859, "ĠTemperature": 36634, "ĠBarnes": 10164, "STEM": 43896, "itri": 30142, "Ġ142": 23703, "ĠMagnetic": 41289, "ĠMarriott": 18985, "Ġnotification": 12059, "Ġgest": 18371, "Alternative": 46759, "ĠTrends": 16565, "ĠHir": 19548, "Ġuncommon": 18186, "Ġsudo": 41463, "eous": 42461, "ĠLuxem": 45557, "ĠAMER": 37501, "ĠIndependence": 12401, "ovies": 40527, "Ġcondemning": 21856, "703": 37106, "Ġfictitious": 34942, "Ġemergencies": 20601, "atility": 25979, "inka": 18433, "quez": 9343, "Ġstating": 9052, "intel": 43066, "Ġorbits": 38786, "ĠLesbian": 43338, "reshold": 45749, "ĠUt": 11183, "Ġepidem": 29027, "ijk": 18474, "ĠRhodes": 16635, "ĠKah": 22021, "Ġobscene": 32433, "Ġsalaries": 9241, "2017": 3789, "mode": 42253, "Ġdiet": 5626, "Ġposting": 6016, "ĠBody": 13048, "Ġexpire": 15761, "cot": 22921, "Ġmultimedia": 15778, "national": 11535, "Ġmerge": 19388, "331": 34071, "odd": 13533, "ĠExtra": 18355, "eer": 22719, "talk": 26594, "ERROR": 46734, "ĠIly": 33612, "Ġit": 24, "ĠNET": 28321, "ĠRao": 17347, "fig": 22699, "Ġpretext": 29290, "ĠOrioles": 14572, "ayed": 12198, "Ġliberal": 6176, "Ġinhuman": 37576, "ITH": 27698, "Ġhindered": 33913, "ĠWeb": 6494, "ĠForget": 25449, "ĠReturns": 29974, "ĠMastery": 47652, "aughed": 48250, "Ġgames": 426, "bomb": 27076, "Band": 36283, "Ġtreacher": 45492, "por": 12150, "920": 29099, "ĠSands": 21673, "Ġsow": 22600, "ĠWings": 13770, "ITAL": 33069, "Ġdigs": 18037, "Ġsucking": 37907, "ĠBorder": 8323, "strap": 43056, "Ka": 34118, "Ġ$_": 49755, "ĠClaude": 24575, "ĠAES": 41749, "io": 1020, "Ġcatch": 2916, "ared": 6537, "ĠSAP": 20282, "Ġstockpile": 32414, "escription": 49934, "Ġgroundwork": 27615, "Ġhous": 46935, "Ġdefends": 24951, "Represent": 28588, "Ġspontaneously": 40553, "gence": 31829, "Ġ55": 3490, "ĠPerse": 42447, "orically": 33848, "peror": 47839, "Ġprevalence": 21087, "Ġdisinteg": 32654, "Better": 35935, "ĠTasmania": 29314, "inst": 16063, "mology": 40006, "ĠMidnight": 30263, "514": 39335, "ĠRoland": 15897, "Ġmedicines": 12441, "Ġ426": 42564, "Ġplumbing": 28104, "Ġglutamate": 47491, "Ġtops": 13657, "Ġgrassroots": 15907, "Ġmanuals": 42798, "ĠTropical": 18683, "ĠDi": 3643, "ĠModes": 47440, "Ġenact": 17890, "monary": 43462, "Ġinher": 39449, "Ġhistorian": 17089, "ĠRash": 9516, "Ġduty": 4053, "redited": 39618, "HTML": 48085, "Ġopportunity": 945, "aina": 23482, "Ġ1902": 43289, "ĠMont": 4436, "Ġhatched": 35391, "ĠJudges": 27896, "ĠBaseType": 50181, "ĠDutch": 5979, "ĠâĿ": 28775, "asp": 9331, "stable": 33435, "awareness": 39495, "reek": 18230, "revolution": 38111, "grounds": 20308, "hole": 11616, "Ġrisen": 7408, "buquerque": 48775, "Ġcontrollers": 22971, "Ġscripts": 26878, "rative": 29566, "itting": 9451, "ĠDairy": 21590, "ĠCurse": 43459, "ĠAthletics": 13429, "Ġg": 821, "Ġferv": 26139, "ĠCASE": 39743, "Writ": 45987, "Ġperformer": 12576, "ĠMarvin": 18669, "ĠTeg": 36495, "Ġprophes": 44769, "apor": 42834, "Meta": 48454, "ĠQuant": 28256, "raid": 25667, "364": 34639, "ĠReilly": 24310, "Ġmisdem": 32813, "hook": 33016, "DIT": 45509, "ĠJanuary": 644, "athering": 37686, "Ġ.": 479, "Ġcircadian": 43079, "Ġacknowledging": 17790, "Ġeliminates": 28458, "ĠAvery": 20268, "Ġlikelihood": 11801, "Ġbicycl": 34984, "rian": 10713, "Ġfirefighters": 6065, "36": 3367, "alde": 37331, "ĠUri": 35034, "gado": 25880, "Ġplat": 33793, "ĠCPUs": 39076, "iltration": 43605, "Ġexasper": 34698, "aron": 9303, "ĠOt": 10233, "Ġsurprises": 14685, "Ġdeflect": 29188, "ĠCourse": 15210, "ĠPupp": 36936, "ĠReleases": 41053, "DC": 5949, "Ġbrunt": 26792, "Ġdeceive": 37267, "ĠHera": 47421, "discrimination": 34635, "ople": 28948, "ĠPrice": 3655, "Ġpioneers": 30580, "ĠGenesis": 24716, "Ġdough": 14397, "Ġdisorder": 8364, "ĠCommunication": 17051, "Ġfalsely": 19349, "Throw": 45920, "ĠDat": 16673, "Ġconc": 10146, "Ġtend": 3805, "Ġinstruct": 20587, "vs": 15597, "Ġname": 766, "Ġimmune": 9161, "ĠUNHCR": 30699, "Liber": 38107, "ĠFleming": 22273, "ĠSabres": 21995, "leader": 19086, "Ġdepartures": 25624, "Ġacquire": 6860, "orie": 19989, "ĠFORM": 45460, "ĠSerge": 29732, "Fig": 44105, "II": 11194, "Ġsovereignty": 13617, "Ġcooker": 35572, "Ġequals": 27601, "ĠGay": 9480, "ĠRings": 32106, "heimer": 17905, "Ġsorcerer": 48158, "Ġdread": 24506, "Ġbuf": 49125, "Ġinfinitely": 40489, "ĠWARN": 47612, "Ġdissatisfied": 37278, "bred": 24550, "ĠLC": 24756, "Ġbelievers": 29446, "Ġquestionable": 12474, "Ġsuccesses": 15185, "Ġdoes": 473, "ĠClaims": 28128, "Ġarranging": 28384, "Against": 41634, "capitalist": 45303, "ĠSwarm": 45148, "ĠBranch": 12159, "ĠLive": 3561, "World": 10988, "Ġblock": 1803, "Ġmeat": 4884, "ĠCongratulations": 24953, "âĸĵ": 49082, "Ġspouses": 23161, "Ġgap": 4044, "Ġrevol": 34633, "uchs": 33306, "ĠAtlas": 22705, "Ġcoat": 9540, "\"},": 49852, "ĠBank": 788, "lah": 30166, "Ġwonder": 5170, "Ġpunish": 15392, "Ġstrikes": 5315, "agree": 44804, "318": 34025, "shown": 44270, "Ġescalating": 15704, "WAY": 33520, "ĠChick": 23569, "ĠPug": 28181, "ĠEag": 44325, "Ġwaved": 21017, "aders": 16434, "Ġ2003": 4999, "yp": 18198, "ocado": 40159, "igor": 24929, "Ġsimplify": 24778, "Ġpretty": 1256, "Ġsomewhere": 6152, "Ġseemingly": 6590, "ĠWor": 12130, "Ġ240": 15452, "inyl": 47253, "Ġdivert": 24222, "hammer": 32404, "Ġadolescence": 38491, "Ñı": 33162, "phase": 35483, "ĠRonnie": 21127, "ĠUh": 23129, "Ġattain": 23229, "Ġadditionally": 31151, "Ġshameful": 26722, "Ġdepartment": 1494, "Ġobjectionable": 41133, "Ġsecular": 16413, "Â«": 45241, "Ġentrepreneurial": 21368, "ĠBO": 9963, "ĠAmerica": 730, "rs": 4926, "DON": 42737, "Ġroomm": 36718, "ĠGood": 2497, "Ġnew": 92, "Website": 47464, "Ġple": 16415, "Ġcarc": 29789, "Ġfreeway": 23718, "Lew": 43949, "Ġsatisfying": 17758, "ĠBa": 5597, "Ġcoy": 20176, "ĠVaugh": 48092, "Ġoblivious": 35606, "olis": 25628, "Ġamendment": 8322, "Ġrequirements": 3471, "Ġ314": 36835, "as": 281, "ĠBuddh": 40620, "ĠDocumentation": 46273, "Ġtattoo": 12904, "Ġirritating": 38279, "ĠOss": 33613, "ĠMercer": 20563, "hl": 11639, "oat": 34827, "operated": 31689, "Ġmarsh": 16377, "Ġproperty": 1038, "Ġcaller": 17017, "Ġ251": 35048, "Standard": 35167, "Ġpredators": 22139, "Ġdefective": 31559, "Ġbenevolent": 43186, "Ġpivot": 27475, "ĠAssassin": 37723, "Ġcarried": 2584, "Miss": 22885, "ĠWine": 11994, "Ġsalesman": 32656, "ĠVine": 15838, "Ġprosecuting": 24243, "Ġlaundry": 16937, "ĠTaken": 32032, "Ġnotices": 16081, "Ġunworthy": 44196, "Ġanime": 28805, "ĠKol": 16052, "075": 36754, "586": 38014, "Ġcoins": 15750, "Ġbusy": 3610, "Ġeducational": 5984, "ĠBeet": 43955, "held": 11706, "STE": 40340, "Ġunl": 35237, "ĠMetatron": 49595, "antage": 34237, "Ġtoll": 5831, "Ġconfronts": 38583, "~": 34437, "Ġliberation": 22211, "Ġbeetle": 41556, "ĠHitman": 44812, "Command": 46785, "Ġshoulders": 10762, "Ġlandmark": 10043, "Ġcontacts": 9872, "Ġcollapse": 6277, "measures": 37939, "ĠStrauss": 25055, "Ġstub": 35672, "Ġtalks": 1431, "ĠAbortion": 38472, "Ġcompiler": 44904, "ĠConstantine": 37538, "ĠRestoration": 32569, "Ġorchestr": 28834, "bo": 3983, "Ġidiots": 39984, "Ġpizza": 9366, "Ġinvented": 19442, "aeper": 49250, "Ġcontag": 38174, "Ġprojecting": 20440, "ĠDAY": 16995, "ĠGE": 10307, "Ġcharging": 6489, "kies": 16731, "reported": 28422, "Ġdemos": 35874, "ĠTIT": 41516, "ĠPedro": 12090, "Ġ207": 27354, "eared": 24845, "sh": 1193, "ĠJudaism": 34345, "ĠZh": 20045, "Ġsimilarly": 11401, "362": 35665, "ouston": 42185, "obb": 25795, "Ġlibertarian": 36471, "-": 12, "Ġridiculous": 10861, "OY": 20664, "Ġtad": 29826, "Ġfaintly": 46361, "Ġflirt": 33743, "Ġweakness": 8269, "ĠFl": 4150, "Ġanecdotes": 35922, "ĠDol": 13520, "Ġhastily": 33779, "rete": 34125, "Ġearth": 6872, "Ġinferred": 42870, "Ġportals": 39605, "Ġfamous": 3395, "Ġvent": 13228, "sample": 14029, "ĠJulius": 20487, "Ġgratification": 37561, "ĠMaple": 12016, "rist": 11516, "ĠKonami": 46950, "Ã©t": 10221, "articles": 32315, "Ġ],": 47720, "ĠPitt": 9386, "Ġdialog": 25730, "ĠRican": 25881, "Ġfloppy": 44184, "ĠCIA": 8335, "Each": 20319, "ĠPrague": 25204, "Ġgrad": 12003, "Allow": 47465, "ĠSharks": 10755, "Ġspecial": 780, "Ġrattled": 21602, "ĠRW": 34573, "ĠBar": 1731, "Ġbrother": 2138, "Different": 44863, "Ġuninterrupted": 33818, "Ġ78": 7004, "708": 36814, "Ġconservatism": 35717, "$": 1629, "Ġdeterrence": 35631, "Ġexamined": 10543, "Ġoral": 11651, "Ġmaneu": 45965, "ĠexternalToEVAOnly": 50169, "ĠMe": 1464, "ĠYen": 30377, "Ġ290": 28482, "ĠEucl": 36873, "ĠKnife": 42238, "Ġscientifically": 36388, "Ġslog": 35650, "Ġconservation": 8360, "immers": 17903, "ãĥŃ": 49323, "Ġransom": 22956, "Ġmanual": 12769, "ĠSparkle": 45884, "by": 1409, "ĠSailor": 41535, "Ġqualifications": 18952, "ohan": 14669, "load": 16204, "Ġtoile": 48484, "zel": 10101, "Ġelf": 40703, "Ġ164": 27983, "enser": 43897, "wark": 37232, "Ġrelaxed": 11956, "iminary": 27005, "ctors": 38636, "212": 22145, "ĠUnicode": 46483, "nerg": 27093, "Ġboarding": 16011, "Ġfills": 22999, "ĠHerrera": 19176, "ĠSpark": 20255, "ĠJoe": 2101, "Ġresiding": 28111, "Ġsqor": 50200, "Ġmotions": 23763, "ĠArche": 45640, "ĠINC": 18012, "VPN": 38130, "Ġdelightful": 24897, "Ġprototype": 17715, "ĠPLUS": 41580, "Ġevidence": 1283, "itzerland": 41607, "Ġpolarization": 37836, "ĠAllan": 16817, "ĠCathedral": 17012, "chen": 8224, "PokÃ©mon": 46661, "storm": 10868, "Cho": 43625, "ĠLilith": 48023, "Ġflick": 22154, "ĠRichie": 20468, "efully": 24358, "Ġplun": 47781, "Wi": 42756, "ĠSherlock": 34453, "Ġaspiration": 34102, "Ġreported": 431, "110": 11670, "night": 8498, "MODE": 49523, "Raid": 44356, "ĠActual": 30144, "Ġpumps": 15555, "alien": 38968, "Ġorbital": 38767, "ĠGovernor": 3383, "ĠDoom": 38574, "wegian": 45618, "Saturday": 17643, "Ġwaived": 17783, "Ġwhich": 61, "('": 45803, "ĠANG": 44552, "Ġadult": 4194, "ĠBreakfast": 18799, "ahi": 15946, "Ġtiers": 34325, "Ġdeath": 744, "ythm": 43821, "ĠAsylum": 40868, "Ġinn": 22282, "cipl": 40146, "ĠPull": 18143, "always": 30035, "drops": 40377, "ĠProtect": 21898, "forts": 36568, "ĠKens": 15485, "ö": 50098, "Ġfulfilled": 20218, "Ġslightly": 2829, "ĠAG": 5680, "ĠYuan": 32684, "WE": 9112, "Ġillust": 31635, "ĠAmendment": 8352, "Ġparams": 49658, "Beck": 41495, "ization": 1938, "ĠIvan": 12110, "Ġwandered": 33712, "ĠScha": 22775, "rators": 25851, "@@": 49453, "Ġcontam": 43337, "Charles": 29217, "Ġweighted": 19099, "Ġodds": 5995, "Ġtelephone": 7377, "ĠRedux": 47204, "Ġhue": 30863, "Days": 41077, "och": 4306, "ĠMorrison": 11285, "ĠIMP": 28922, "ĠFinnish": 21533, "ĠMerrill": 14635, "Ġfellowship": 27580, "ĠRhode": 12374, "Ġgenre": 11581, "ctrl": 49355, "aze": 10129, "Ġdoors": 4259, "ĠSessions": 5899, "ĠUniversity": 589, "Ġbios": 29607, "ĠChandra": 29606, "Ġrange": 1186, "Chinese": 24727, "Ġcance": 21338, "Ġseparates": 26337, "incinnati": 40783, "iaz": 22517, "Ġimpaired": 15241, "379": 34309, "Ġpositioning": 15621, "ĠJonah": 30014, "Ġfruit": 6231, "erning": 37835, "Ġcoconut": 18944, "ĠSNP": 20472, "017": 35142, "Muslim": 19952, "MQ": 44342, "Ġdelic": 24234, "ĠAssignment": 46091, "ĠIncident": 35201, "ĠAerial": 37550, "ĠExpo": 17003, "Ġbiggest": 934, "ĠWho": 3394, "rama": 24016, "ĠBiden": 15478, "Ġsmoothly": 17359, "Ġ56": 4772, "ĠAndromeda": 43866, "Ġintuitive": 23837, "Ġtoast": 20260, "ĠStev": 23346, "Ġinvaders": 39904, "Ġsmiles": 14504, "URR": 22323, "omet": 11174, "Ġfinds": 5684, "ĠIntro": 44457, "Well": 8346, "ometers": 33794, "acho": 21110, "Ġsurgeon": 16308, "626": 37190, "Ġliabilities": 13189, "ĠALE": 38772, "Ġpaused": 28115, "ĠLSU": 11099, "prov": 13138, "Ġhistoric": 3575, "Ġoutlandish": 35785, "ĠDickinson": 23574, "ĠViolent": 36483, "reads": 42491, "Ġprotected": 4371, "Ġeconomy": 866, "unct": 27688, "Ġdissolve": 30887, "fusc": 48996, "oras": 38308, "92": 6617, "ĠLies": 24531, "Ġspanning": 19161, "Ġangle": 11792, "erey": 16916, "ĠSport": 5413, "cern": 38987, "venient": 40644, "ĠDisk": 39770, "Ġscared": 8265, "Ø©": 38419, "nutrition": 44895, "ĠGonzalez": 9670, "ĠTears": 37246, "ĠPix": 34834, "Ġrealizes": 26558, "Ġwhales": 18018, "ĠReynolds": 9295, "ãĤ¨": 49682, "Ġnuns": 34274, "exc": 34645, "states": 26947, "Ġexamination": 9027, "Sometimes": 13624, "Ev": 25377, "rea": 9891, "ĠPlay": 3902, "Ġprompted": 5256, "Across": 42945, "Ġprogrammed": 30825, "ĠMouse": 30693, "ĠInd": 4619, "Ġnonprofit": 6651, "ivia": 40978, "Ġsuc": 43164, "Ġperfectly": 6683, "Watch": 14287, "bp": 20794, "ĠLightning": 14090, "ãĥ¥": 49432, "ĠMarino": 30713, "ĠTar": 8341, "ĠNZ": 15930, "Jenn": 44802, "separ": 39114, "ĠCOUNTY": 12629, "Ġredundant": 31813, "History": 38261, "Ġcorrections": 21349, "Ġflourished": 34681, "Ġwiret": 30537, "Ġreleg": 43436, "requires": 46419, "Ġinsomnia": 37197, "ĠMighty": 34028, "Ġmerciless": 37927, "T": 565, "Ġexecution": 7356, "Ġrespectively": 4067, "orous": 24477, "IRT": 40835, "ĠClean": 10326, "ĠLocations": 42236, "Ġrotate": 28767, "ĠReef": 27523, "ĠSap": 25452, "ĠHank": 22216, "utenant": 47397, "Ġgoverned": 22635, "ĠBalloon": 42331, "ĠColor": 16858, "ĠTsarnaev": 41445, "arget": 45358, "Ġdescriptor": 47220, "facing": 16891, "Ġrecomb": 45493, "ĠGrow": 22267, "Gs": 28393, "rot": 12179, "Ã±o": 14182, "ĠHTTP": 44454, "ĠNat": 10037, "Ġcorrecting": 35847, "ĠSpend": 34675, "ĠPrepare": 35715, "usting": 19171, "ĠNope": 37712, "Ġsociop": 42196, "Ġmodelling": 26471, "Ġinaccur": 38225, "Ġovershadow": 37387, "conservancy": 49273, "ĠND": 19430, "wolf": 36238, "Ġinterviews": 5533, "Ġrevelation": 15461, "Dialog": 48873, "electric": 18986, "Ġunlocking": 33653, "Ġsettles": 32785, "Ġpin": 7756, "Ġpoised": 10137, "ĠKnot": 40834, "ĠClosing": 30617, "Ġnutritional": 22813, "ĠBombs": 42263, "Ġexpired": 13729, "ĠAlm": 32399, "ĠNebula": 44846, "ihara": 40573, "ofi": 19215, "Ġpotions": 46907, "ĠTOP": 17918, "nice": 34033, "ĠAlter": 33971, "Avg": 48929, "ĠCabrera": 22112, "Ġmysql": 48563, "Ġamplified": 32755, "icol": 26609, "Ġ165": 20750, "skirts": 48507, "download": 41536, "Ġasylum": 6702, "ĠSeal": 27303, "ĠOpposition": 11112, "Ġbreaking": 3433, "ĠCategory": 11995, "Tube": 47538, "ships": 31404, "Ġstoryline": 19879, "Ġdogged": 23597, "Ġswear": 24909, "ĠHath": 20880, "Ġcowardly": 36881, "ternally": 41076, "ting": 2577, "atters": 30753, "NAS": 3399, "OTS": 34250, "LED": 34482, "ĠBean": 21800, "188": 28871, "loo": 37521, "ĠNeo": 31176, "MJ": 41062, "Solution": 48734, "ĠMeredith": 18244, "Ġrarely": 7154, "airs": 18022, "Ġbalance": 2394, "ishops": 32084, "ĠWak": 27540, "pict": 46841, "leases": 14931, "ĠEvans": 4869, "Ec": 44220, "Ġghetto": 42639, "igators": 36084, "ĠGOD": 41827, "Ġdeleg": 25112, "ning": 3509, "Ġhampered": 21757, "aukee": 45196, "ĠConflict": 35856, "ĠMPH": 39445, "Ġdiscouraged": 25788, "ĠFiji": 19824, "unte": 29998, "ribute": 25006, "Ġstash": 34954, "Ġmedi": 18422, "Ġmorphed": 34863, "Ġbreadth": 24135, "works": 11655, "Ġpersistent": 13109, "Ġ180": 8963, "ĠWORLD": 32697, "HY": 32288, "ĠAX": 31697, "archy": 37208, "isition": 39353, "DCS": 47791, "Ġfilmmakers": 17504, "exit": 44054, "ĠSATA": 45083, "ĠCONC": 27105, "Game": 20178, "Ġlectures": 25798, "visory": 20946, "Ġstockp": 21773, "Ġgraduating": 15128, "Ġhanging": 7209, "Ġbang": 14225, "uably": 44527, "ĠInsurance": 6799, "olving": 21241, "Ġsecretly": 16340, "!?\"": 48474, "Ġceleb": 25622, "ĠStart": 2776, "ĠKnow": 10690, "ĠHeal": 42064, "ĠMax": 4471, "nexpected": 42537, "itic": 31128, "ĠBhar": 11452, "Ġinflux": 15849, "ocations": 29876, "Ġcentrist": 24415, "Ġsulfur": 34196, "ĠExtended": 36358, "Ġunaware": 14021, "Ġcylinder": 31108, "enezuel": 41025, "kb": 41238, "Ġcorrectness": 34726, "Ġimpairment": 18741, "Ġpoisonous": 34382, "Ġindiscrim": 30416, "ĠDUP": 22598, "Ġoverdose": 11972, "ĠMelania": 12305, "ĠRocky": 13739, "Ġcooperative": 18777, "Ġfare": 11031, "Ġbottles": 9407, "Ġmicrobes": 32381, "irlwind": 47905, "Ë": 43621, "Ġfacade": 30914, "orters": 10236, "ĠPall": 18612, "ĠCull": 29169, "IDENT": 29877, "consumer": 31666, "751": 40670, "Ġapps": 3798, "qua": 23869, "Ġdemonstrates": 13905, "ĠZika": 19924, "ence": 4086, "Ġobey": 28616, "Ġ268": 37245, "Ġdelinquent": 39614, "Ġnewer": 13964, "Ġlegitim": 34627, "Ġswath": 31281, "Ġdebacle": 27297, "Shop": 39948, "anga": 9615, "ĠBuddhism": 40597, "Ġsizes": 10070, "ĠTulsa": 18532, "Ġfrustrated": 8164, "ĠAnge": 29199, "^{": 49688, "ategic": 32281, "Ġboon": 28240, "Ġgrowth": 434, "Ġtrusting": 28969, "ĠWANT": 40455, "49": 3414, "ĠPles": 45961, "grades": 25579, "ĠCummings": 20342, "gets": 30900, "ids": 7823, "utsche": 35816, "essert": 38979, "ĠBolivia": 29819, "ĠST": 4062, "former": 22098, "ĠEverything": 9567, "hess": 38002, "assian": 40310, "era": 3843, "ĠDepths": 48796, "Ġremovable": 37680, "hack": 41040, "Ġshelling": 27277, "Ġtesters": 41323, "Ġflying": 4731, "pees": 9495, "Ġfunctions": 8047, "ĠValhalla": 45173, "ĠProvince": 16517, "Ġtopping": 11744, "Ġspike": 12490, "970": 35115, "ĠTop": 3107, "Ġtest": 1296, "Ġaviation": 9848, "Ġshares": 327, "ĠHeader": 47959, "Ġplethora": 25621, "Ġunsettling": 30203, "Ġink": 16019, "mediately": 36382, "Ġaback": 36347, "Ġstill": 202, "Anyone": 25480, "Ġanimation": 19269, "Ġlions": 25711, "Ġintestinal": 39475, "Ġsupporters": 2732, "Ġneighboring": 10935, "Ġchecklist": 36914, "Ġunmarked": 30161, "ĠStates": 532, "Ġpartic": 28872, "vest": 13493, "ĠCarb": 27525, "udder": 44700, "ĠInstruction": 41241, "Ġcircumst": 42755, "Ġpl": 2968, "Ġbackwards": 19312, "309": 31573, "698": 38080, "Philipp": 35196, "Ġpair": 1763, "worldly": 39860, "Ġtre": 6110, "oky": 24878, "CB": 25392, "ĠNewfoundland": 25751, "Ġexclusive": 5451, "ĠTask": 12927, "Ġmeantime": 10299, "ĠSOM": 41390, "ĠVancouver": 5071, "ĠBoulevard": 9286, "ĠPO": 17182, "Temp": 47971, "ĠMovement": 11753, "rog": 10191, "Builder": 45200, "Always": 37478, "ifix": 48121, "Ġblu": 42034, "cience": 30836, "Ġsquares": 32657, "ĠWood": 3132, "ĠTarget": 8506, "ĠBuccaneers": 18794, "Ġ1925": 36248, "ĠAlso": 1578, "ĠHUN": 35822, "Ġprofound": 13960, "Ġcontexts": 38270, "Ġproverb": 45031, "ĠBannon": 10309, "schild": 47502, "ĠFIN": 20381, "960": 35154, "Sync": 41342, "ï¿½": 21955, "supp": 16714, "Ġopposed": 4340, "Ġpaed": 31138, "Ġgigs": 27078, "Ġscare": 13207, "Ġhotel": 2303, "Ġobstacles": 13143, "Ġtried": 1381, "plate": 29098, "Ġgodd": 46438, "ĠKarachi": 15043, "Mess": 40169, "Ġresolution": 3547, "Tips": 46070, "Ġfavourites": 14583, "Ġdegrees": 4176, "usters": 37406, "Ġlibrary": 5560, "Ġgenerates": 17382, "ds": 11622, "ETH": 31076, "esteem": 29704, "Ġcredential": 37440, "Attribute": 49385, "OV": 13565, "ouring": 15794, "Ġasleep": 15028, "iblings": 44271, "Security": 36090, "Ġreject": 10363, "ĠAcad": 20341, "near": 34664, "Ġfrog": 34695, "17": 1360, "UC": 12945, "Ġjailed": 8420, "Ġiss": 46682, "Having": 15852, "tt": 5967, "iro": 4712, "org": 1957, "vc": 36940, "ĠQuick": 13287, "Ġridge": 32467, "ĠSession": 19374, "Ġcommitment": 2720, "adic": 32944, "ĠProject": 3728, "Ġliberating": 38775, "ĠWra": 41012, "Ar": 8138, "Ġplur": 46005, "Ġconfronting": 21642, "ĠInsect": 44031, "ĠPercentage": 34522, "inately": 39670, "pret": 42354, "Ġowner": 1945, "ŀ": 17772, "mL": 43619, "Ġvile": 32359, "Ġstages": 5612, "Ġexpenditures": 14300, "Ġdefensively": 17417, "nsics": 34474, "Ġ378": 41823, "Ġnausea": 27214, "uring": 5206, "Ġlineback": 47690, "significant": 18880, "atar": 18416, "aturation": 41628, "ãĥ¤": 49896, "ĠWolverine": 34594, "Ġdaytime": 19436, "Ġabandon": 12506, "Ġpotentially": 2905, "zsche": 49446, "organisms": 41648, "Ġ129": 21234, "vasive": 35024, "Ġbrakes": 17690, "ares": 5347, "astical": 40707, "Dial": 47574, "ĠUnt": 32330, "Chapter": 45642, "Ġquarry": 36339, "Ġcall": 486, "Domain": 48527, "ipt": 10455, "perial": 42383, "Ġeloqu": 33472, "ãģ¯": 48549, "134": 25050, "meaning": 24872, "ĠInstead": 2978, "Ġterritories": 13560, "ĠHex": 34824, "OCK": 13181, "SF": 23646, "Ġmatching": 8150, "Ġportraying": 28223, "CRIPTION": 42908, "STAT": 40106, "it": 405, "Ġexposure": 4895, "Ġcentralized": 30574, "ĠThief": 43088, "Ġdele": 32169, "fa": 12010, "ĠINT": 30497, "isite": 46477, "asonry": 42687, "ĠOval": 12077, "igue": 18351, "URES": 28714, "Ġdepict": 31089, "ĠCVE": 45185, "hin": 11040, "ĠScare": 44429, "38": 3170, "ĠSpan": 28967, "Matthew": 33667, "ĠBayer": 20799, "Ġbrethren": 41673, "Ġ45": 2248, "ĠBW": 37170, "Gal": 32302, "Ġoverc": 44825, "iders": 8936, "etheus": 48208, "ĠGiul": 36077, "ĠPR": 4729, "taker": 15232, "Cour": 43309, "ĠFlickr": 33608, "Ġconquest": 41127, "cz": 10608, "Ġsuperflu": 44459, "Ġgrant": 4470, "435": 33115, "Ġreflex": 32229, "chemical": 22987, "LLOW": 19876, "ĠCaribbean": 7599, "eah": 41414, "ĠChes": 12819, "rimp": 40537, "IDA": 28887, "overs": 13507, "ĠOakland": 5147, "esome": 38297, "Fred": 33153, "tone": 32612, "Ġtextures": 32343, "290": 24675, "ĠImmigration": 10294, "\":[{\"": 49817, "Folder": 49262, "ĠEV": 10210, "ĠSor": 14405, "lie": 11527, "ĠStro": 21537, "ĠEthiopia": 13934, "ĠTexans": 10818, "Ġrecal": 34973, "Ġparamedics": 16443, "anova": 18980, "adan": 30637, "Ġrising": 2227, "Ġsuited": 14756, "Ġoats": 38368, "ilar": 16813, "Ġcircuitry": 44928, "Ġneedle": 19012, "Ġpiercing": 38105, "Ġeroded": 28414, "Ġ131": 22236, "Ġinternal": 3425, "ĠLatinos": 28514, "ocrats": 33335, "ĠDakota": 6223, "Ġperspectives": 17403, "ĠIX": 23698, "!!!!": 32376, "ĠOst": 21932, "ĠRez": 36623, "ĠFairfax": 18773, "ĠFurther": 7029, "Ġ136": 23272, "Ġsniper": 31985, "Ġdefensive": 2465, "Ġsurvival": 7967, "Ġtransplant": 14067, "width": 36097, "Ġswipe": 21322, "ĠWHERE": 29919, "Lyn": 34052, "ĠMoment": 21474, "fest": 13936, "Ġoppression": 22521, "Ġcolonial": 16605, "Ġvideos": 3424, "dn": 26812, "vl": 41350, "Ġstrongly": 5025, "ĠMarse": 23294, "Ġproofs": 45322, "Ġpatriotism": 26181, "Ġgran": 17227, "ĠDesktop": 37125, "Ġrefugee": 7220, "ĠWebster": 17961, "Ġmultiplied": 39582, "Ġdou": 25605, "farm": 19779, "ĠLongh": 27522, "Ġpotion": 46728, "inline": 48865, "abad": 7826, "UPDATE": 34543, "ĠStockholm": 18850, "olutely": 40716, "ain": 1851, "Ġrunners": 8437, "Ġbribery": 16854, "ĠRem": 8022, "Ġbirthday": 4115, "entity": 46317, "Psych": 44353, "ĠTowns": 22155, "Ġarm": 3124, "Ġenlightened": 38853, "Ġdealers": 8802, "ĠPhilippe": 16478, "Ġregister": 5124, "debug": 49208, "ĠMat": 4101, "ĠRun": 7435, "ĠTele": 12024, "129": 21867, "Ġcons": 7407, "ĠPlayoff": 21638, "ĠGang": 13474, "ĠLockheed": 19317, "Ġcalculation": 21586, "Ġkin": 24438, "Ġearn": 4073, "Ġgubernatorial": 18932, "ba": 3178, "Ġsing": 7884, "Ġhuge": 1307, "Ġmortality": 15812, "ĠConsumption": 24559, "ĠWarranty": 45351, "Ġcrowded": 11138, "ĠGly": 39632, "Ġconservative": 3354, "prem": 20692, ",-": 45693, "ĠDamage": 33571, "Ġmildly": 33019, "Ġincess": 32772, "Ġbased": 716, "Ġweaker": 8074, "hester": 45602, "acid": 37432, "ĠSaying": 35009, "ĠGiov": 33829, "Ġ95": 6164, "ĠSherman": 13226, "Ġbrushing": 32669, "AK": 7140, "Ġsteady": 5204, "itched": 17670, "ĠAh": 7746, "Recipe": 48750, "forced": 25258, "Ġmascot": 25644, "Minimum": 47940, "Ġfishing": 5651, "Ġshif": 37503, "ĠElaine": 19310, "strong": 8355, "Ġtrying": 667, "Ġservants": 15460, "Ġpilot": 4792, "okin": 36557, "Ġeve": 15330, "Ġdelve": 33244, "Ġblockers": 39991, "Norm": 46333, "Record": 33526, "Hart": 39657, "Ġpirates": 34941, "ĠCircuit": 7813, "Weiss": 48069, "Ġelectronics": 8917, "Ġcompetence": 27973, "Ġshovel": 23439, "LGBT": 35021, "ld": 4779, "ĠAve": 4597, "Ġcement": 10546, "Ġcells": 4590, "assuming": 34730, "ĠQuart": 31385, "bps": 27072, "ĠPacific": 3073, "ĠLS": 29881, "Ġshades": 16578, "itutes": 39626, "ĠIndigenous": 9237, "igl": 27163, "Ġboxed": 35657, "ĠPegasus": 40257, "ĠGOP": 3932, "Dragon": 43273, "Hell": 38980, "ĠTherapy": 25889, "production": 22862, "nington": 23361, "empty": 41486, "ull": 5023, "breaks": 41343, "Krist": 39100, "Ġcompos": 25206, "Ġquietly": 11034, "ĠBiological": 33271, "ĠFreeBSD": 47815, "ĠWhile": 616, "ĠPierce": 13891, "Ġcapabilities": 5587, "Ġtasks": 8558, "ĠCard": 5866, "ĠKre": 15289, "åĮ": 48418, "ĠPowered": 37910, "ĠSatoshi": 43084, "Ġ76": 5553, "Ġdove": 27764, "ĠBold": 20837, "Num": 48184, "mo": 4992, "',\"": 24095, "apple": 27326, "active": 12228, "Ġformatted": 46625, "anned": 12788, "âĢ¦.": 13361, "gres": 43785, "ibl": 41074, "lite": 33701, "Ġconfined": 18687, "Ġtrump": 20125, "ĠESL": 41904, "adr": 27968, "Ġsepar": 31207, "Ġbuildings": 3413, "Ġchampion": 2234, "ribing": 23450, "thirst": 44104, "joining": 45683, "1996": 40636, "ĠExperience": 14360, "ĠFil": 13663, "ĠAmpl": 37522, "Simply": 42577, "Ġcheered": 18643, "ĠREPL": 46447, "otiation": 33524, "Ġshout": 18066, "ĠIslamist": 9954, "Ġoften": 747, "ADRA": 47272, "Ġmuscular": 26163, "Ġfart": 36762, "ĠTermin": 33890, "Ġautomated": 11554, "ĠOver": 2306, "Ġpricing": 5024, "Liquid": 46769, "Ġdispleasure": 30201, "Vict": 32094, "ĠJul": 9654, "Ġguarded": 25853, "Ġprecip": 20662, "ounding": 10773, "Ġscary": 10222, "ĠPentagon": 8058, "ĠHDD": 44139, "Ġcrap": 28342, "Ġproducer": 3436, "Ġfist": 19033, "Ġtribes": 17116, "ĠRemove": 27336, "465": 33544, "ifiable": 21584, "hus": 25134, "iology": 17129, "ĠCould": 9918, "windows": 47748, "ĠSeat": 31169, "Ġspider": 29499, "ĠPortland": 5926, "Ġfriendship": 9330, "Ġbarely": 6254, "Ì¶": 48096, "Ġmass": 2862, "Ġpasser": 17663, "Ġcongressional": 5744, "ĠMOR": 26719, "Ġtrailed": 13221, "ĠTrib": 24311, "Ġoffer": 904, "os": 366, "Ġ162": 25728, "tested": 33882, "Ġfinger": 8411, "ĠSurv": 37979, "APH": 30638, "Ġtrainer": 10085, "Ġcasc": 34455, "aja": 10737, "crypt": 44675, "Ġrumored": 19352, "+,": 30787, "Project": 33347, "Ġshelters": 11169, "Jason": 24434, "ĠInter": 3870, "Ġmus": 11721, "Ġreferen": 48655, "Ġattributes": 16763, "Ġ436": 43319, "ĠSecond": 4665, "Ġmating": 40297, "support": 22930, "Ġinterpretation": 13794, "Ġdictated": 31267, "Ġmotiv": 21496, "arb": 25364, "Ġartistic": 11419, "Ġgone": 1613, "uckland": 47079, "ĠSolid": 19324, "ĠForced": 42659, "ĠTripoli": 25679, "washed": 39956, "ĠMen": 4011, "Ġbathroom": 8080, "extremely": 22754, "ĠÂ·": 13339, "Ġresolves": 41913, "ĠWTO": 21896, "Mrs": 36176, "ĠPrototype": 45790, "serial": 46456, "Ġimpoverished": 24075, "ĠWisdom": 35883, "Ġsynopsis": 33577, "Ġenjoyed": 3776, "Bat": 43852, "ĠMalays": 35312, "Ġprestige": 28602, "Ġsubreddit": 45757, "Under": 17245, "ĠCarter": 5306, "Ġbrewer": 34651, "ĠRealms": 47384, "DEF": 44438, "ĠWilderness": 35325, "Ġsermon": 33107, "RON": 37043, "Ġawarded": 4241, "GC": 11961, "ĠLeadership": 13046, "ĠOber": 22828, "Ġfullest": 31848, "Ġstares": 40782, "ĠReserv": 23895, "ĠMeeting": 12776, "LT": 30395, "Ġslump": 13254, "Ġbelieve": 679, "ciples": 44633, "Ġsupport": 323, "Ġbarking": 35828, "Ġoverr": 34685, "Ġexclude": 18717, "InstoreAndOnline": 50227, "ĠAut": 9496, "§": 6248, "Ġcondensed": 35501, "retched": 47904, "Ġprobability": 18102, "ĠLucy": 14309, "Ġrespects": 13947, "ĠKorea": 1101, "rl": 41857, "Ġgathered": 4366, "ĠCentury": 9348, "Ġcover": 1719, "1999": 37446, "Ġadjourn": 16649, "same": 41690, "ĠNetworks": 14641, "?'": 6600, "Ġdiv": 14445, "Conn": 19730, "Ġdemocrat": 26232, "two": 7109, "uv": 13996, "tra": 9738, "ĠMiddle": 2367, "Ġadvertisers": 15857, "ĠOccup": 24869, "csv": 49079, "ĠPDF": 22745, "Ġattraction": 13003, "idan": 34343, "Ġproliferation": 24739, "heartedly": 34089, "Pause": 48532, "brown": 31876, "Ġtonnes": 5657, "uning": 37215, "ĠXu": 30226, "ĠCarolyn": 19949, "Ġtokens": 22121, "Ġoversees": 14318, "crow": 43520, "ĠBl": 2091, "lander": 14862, "ĠTicket": 17398, "acia": 21647, "aults": 37624, "Test": 34603, "Ġconfident": 3230, "only": 8338, "Ġaim": 4374, "Ġconfirming": 13958, "roach": 32388, "ĠSequence": 47134, "oon": 3863, "Ġgigg": 33786, "ĠSphere": 45644, "ĠNYU": 35102, "core": 7293, "Ġdefects": 23487, "ĠDT": 22603, "righteous": 44427, "un": 879, "utherland": 48588, "wide": 6445, "Ġattribut": 41070, "Ġchampions": 4739, "Buy": 7598, "Ġfares": 18688, "oooooooo": 47879, "Ġasserts": 32838, "Ġdat": 13516, "ĠGenetics": 35812, "Ġapproval": 2846, "nea": 22423, "athon": 23357, "ĠPrices": 14614, "Fourth": 46354, "reci": 19954, "Ġlang": 22682, "ĠSweeney": 22955, "ĠJustice": 1659, "ĠMish": 22975, "ĠSav": 9721, "Ġ525": 38305, "Ġthresholds": 37817, "Ġoffline": 17786, "MU": 31502, "ĠDiscover": 25087, "Ġaccidents": 9960, "Ġexamples": 7721, "vine": 28022, "ari": 1512, "ews": 10269, "Ġrevival": 14471, "Ġcharismatic": 25961, "valid": 42679, "ĠComes": 35307, "536": 39147, "Ġslick": 19038, "risk": 10848, "Ġnin": 40176, "Ġguys": 1669, "Ġdiction": 45073, "ĠParade": 15287, "Ġecstatic": 30754, "ĠPicks": 34191, "STER": 32866, "Ġmerger": 7394, "Ġtrophy": 8071, "Ġwholesale": 12195, "Ġmember": 919, "Ġinfusion": 29016, "ĠPurg": 47487, "Vector": 48417, "aspers": 27254, "ĠPerl": 35939, "ĠMiami": 2561, "ĠMiy": 28555, "Ġnewborn": 14354, "respond": 36797, "socket": 48154, "44": 3305, "Ġpuppet": 29771, "ĠHond": 31200, "Ġconsequences": 4914, "Ġconcern": 2212, "Introduced": 49360, "ĠHat": 10972, "Ġappearing": 8165, "enses": 21526, "cloth": 41262, "Ġcryptoc": 48478, "Ġhaving": 519, "Ġintroduced": 2942, "Ġglued": 34947, "Ġincon": 27493, "ĠPCI": 40770, "Aff": 41085, "puff": 46335, "Ġdried": 16380, "ĠParad": 35000, "Ġwoven": 31605, "Ġsob": 18769, "Ġspread": 2504, "ĠIntelligent": 34106, "lux": 27643, "Ġdescending": 35602, "Ġreplaces": 19999, "yth": 20436, "Next": 19192, "Ġdetectives": 10412, "Ġheed": 25432, "ĠNOT": 8127, "729": 40125, "Ġdisband": 40767, "ĠCoC": 47319, "Ġexhibitions": 23767, "Ġign": 29852, "Ġindignation": 42584, "lc": 45071, "beit": 23274, "Ġstun": 16990, "Ġclimb": 8264, "isons": 24806, "Ġsummoned": 17323, "Sunday": 21583, "tips": 30767, "ĠHirosh": 43271, "Ġknife": 7023, "BR": 7202, "EW": 15251, "oise": 22941, "Ġvoc": 28312, "Location": 46571, "Ġcasino": 10297, "ĠDice": 44705, "Ġgenerously": 31306, "Ïĥ": 47721, "icipated": 45500, "ĠEVENT": 44805, "Ġpresident": 394, ",.": 39747, "continue": 32757, "Ġgarg": 40696, "ĠCost": 7860, "Ġtotem": 45197, "Ġassociated": 3059, "ĠGeek": 34301, "Ġcaptcha": 49157, "Ġinterference": 8149, "ĠMalf": 47664, "Ġsensible": 19653, "Ġsubordinate": 38363, "Ġnegotiate": 8654, "Title": 46525, "ĝ": 50137, "gregation": 46607, "ĠSeverus": 48879, "593": 39785, "nings": 9523, "Ġstartups": 12784, "Ġwitnessed": 6957, "ĠBelgian": 11731, "Ġadditives": 36254, "Ġreversal": 17854, "ĠBermuda": 29833, "ĠVick": 18889, "connect": 24501, "rine": 24339, "ĠOffline": 46949, "Ġappointing": 25877, "Unless": 33757, "LAB": 44435, "ogh": 28552, "ĠMaharashtra": 14729, "Ġorganization": 1651, "ĠMillenn": 38899, "ĠPostal": 24076, "Ġpian": 23674, "ĠGrace": 7569, "ĠEst": 5441, "Ġz": 992, "Ġsl": 3369, "Ġcontroller": 17554, "Ġrepetition": 37176, "Ġplastics": 19532, "317": 32072, "Ġdrib": 23322, "icking": 10176, "uden": 18177, "ĠRafael": 12534, "Ġkg": 14091, "Ġà¨": 49263, "ĠIR": 11594, "Kansas": 38959, "ĠGroups": 26599, "verning": 29946, "Ġchlorine": 32457, "eled": 13587, "Ġtyres": 21112, "iv": 1879, "Ġcelebration": 4821, "Ġembarrassment": 19124, "332": 33911, "ĠBag": 13379, "Ġkeen": 5609, "ĠRih": 17667, "Ġlat": 16619, "Ġimmediate": 3169, "ĠTet": 26117, "Ġworsened": 23307, "Ġpenned": 20043, "mans": 18370, "ĠHour": 16928, "ĠCove": 19452, "Open": 25266, "Blu": 45058, "ĠTul": 18649, "Ġfools": 38201, "Ġestablishment": 7147, "igating": 31721, "ĠCe": 15858, "ĠIvanka": 12739, "ĠZealand": 3324, "Ġfile": 2870, "Ġpeers": 6763, "Ġadvert": 26238, "rored": 48723, "Ġcoastal": 8095, "åĭ": 48675, "Ġmine": 4318, "Ġgrenade": 30576, "Ġselfies": 19571, "Ġoptical": 17547, "ROM": 41944, "Ġsummed": 27446, "åį": 47658, "Ġhorizontal": 25490, "bags": 19090, "ĠUnited": 315, "ĠDiscussion": 34234, "ĠElk": 25593, "Ġpneum": 45001, "ĠContent": 12803, "756": 39755, "ovi": 19277, "ĠLB": 15456, "Ġprinter": 24079, "Ġclaws": 41082, "CONCLUS": 49760, "rim": 6103, "ĠExam": 40083, "R": 500, "vironments": 47100, "Ġautistic": 33329, "arted": 26587, "artifacts": 49504, "ĠWriters": 23149, "leaders": 23240, "Ġrenal": 39729, "});": 49440, "Ġhazard": 19895, "Ġempty": 5802, "Ġbackdrop": 11379, "Ġcorrective": 31378, "Ġgrind": 16655, "heastern": 30217, "tool": 43342, "assin": 42846, "Ġshade": 13686, "Ġenjoy": 2254, "EAR": 27757, "Ġinstructors": 25508, "Ġweakening": 16188, "Ġprofessionals": 5197, "Ġlows": 6917, "unda": 21729, "sex": 8821, "Ġexhibition": 6318, "abo": 21763, "Ġaccompanies": 38487, "hem": 9506, "ĠIn": 96, "Tel": 36417, "Ġroads": 3197, "Ġpessimistic": 32415, "Ġsling": 40515, "Ġoutskirts": 17155, "ĠTSA": 24211, "ining": 6074, "legate": 35976, "ĠVoc": 36413, "Ġcontagious": 27432, "onse": 33098, "Ġthe": 5, "Ġmosqu": 49209, "like": 3341, "ania": 8295, "ĠPolaris": 35612, "ĠBarber": 19075, "ĠSteele": 14556, "Ġrepairs": 9534, "ĠJin": 22876, "Ġwildfire": 12688, "Label": 47895, "ĠPS": 4868, "Ġoffspring": 28491, "Ġprescribe": 30871, "Are": 13755, "ĠPM": 2784, "Ġportrait": 13369, "Ġfranchises": 18154, "ampoo": 44864, "Ġunicorn": 35545, "ĠInvaders": 47103, "ĠSUPER": 36392, "Ġholdings": 4582, "ĠEly": 21294, "ĠShah": 5277, "Ġaltercation": 16678, "Ġorphan": 21297, "www": 1401, "Ġcouldn": 1705, "ĠPenny": 15965, "obar": 22468, "ĠAchievements": 47557, "Ġfacilit": 30893, "Ġobe": 40923, "achusetts": 45480, "ĠSantiago": 13823, "ĠâĪĴ": 42736, "Ġ68": 5595, "Ġbetting": 9262, "Ġtempt": 34919, "Ġejac": 43624, "atorial": 26202, "ordable": 31760, "ĠEthiopian": 24128, "Ġemitted": 37141, "Ġopposite": 5483, "oglobin": 43202, "ĠLAR": 41211, "Ġfiber": 11810, "arenthood": 40532, "ĠDomin": 13976, "Ġairspace": 25260, "Ġminors": 12633, "tle": 12607, "ĠStead": 32979, "qqa": 48207, "Ġ402": 39827, "ĠVirginia": 2240, "assetsadobe": 50230, "madeupword0002": 50263, "Ġabsolute": 7833, "Net": 15721, "Ġapr": 28200, "Ġhealer": 43214, "JB": 42802, "Ġprompt": 14302, "ĠOslo": 26067, "ĠDarren": 11335, "Ġ1924": 35211, "ĠDisco": 41240, "Ġchops": 30053, "Ġhaunt": 28297, "@@@@": 49969, "ĠSPR": 25852, "Ġlaureate": 34272, "Ġunaccompanied": 31900, "ĠLuffy": 47848, "ĠLeia": 35613, "Gun": 39916, "sent": 19530, "Ġè£ı": 50073, "ĠRM": 16124, "cue": 35249, "Ġdemocracies": 32418, "Ġaccompl": 17872, "Ġactions": 2163, "Ġ380": 27264, "Ġafore": 45074, "Ġproblems": 1272, "wall": 12764, "Ġunsustainable": 26079, "Ġresidency": 17332, "actions": 28929, "idental": 27350, "Thanks": 22086, "ĠSSH": 46555, "Ġcurated": 23132, "Ġbite": 10970, "roc": 18375, "Ġbas": 11909, "Ġsilicone": 35453, "Ġsupplementation": 45304, "Ġblinding": 43279, "console": 48028, "Collins": 40380, "Review": 32773, "Ġimpatient": 32601, "ĠBowser": 40820, "ĠWHAT": 13331, "Ġsurgery": 3012, "device": 42005, "Ġcredible": 10280, "Ġbent": 18822, "Ġ88": 7953, "Offline": 49238, "ĠNorth": 369, "Enjoy": 44049, "pretty": 28674, "Ġpropos": 44779, "485": 33467, "dan": 14856, "ĠDisaster": 20527, "ĠServices": 1820, "Ġtranslucent": 42026, "white": 9830, "arist": 33547, "ĠGou": 33291, "Ġdonated": 6652, "biology": 41475, "urch": 9222, "ĠBoehner": 31344, "Ġ130": 8325, "Ġcleaners": 32552, "Football": 28206, "Ġimposing": 13223, "Ġmosa": 45811, "ĠAH": 30227, "ĠTYPE": 44731, "Ġcelebrating": 6146, "Ġhi": 20280, "ĠDive": 37954, "ĠSurf": 23756, "Jun": 31036, "Ġraises": 7700, "hibited": 43194, "though": 18401, "Ġcorrelation": 22792, "ĠProvider": 31314, "Ġrecover": 5312, "Ġcrossing": 6724, "Ġpraise": 8249, "Ġmoratorium": 25618, "ĠArena": 5036, "TextColor": 50035, "Ġtallied": 20195, "Ġfasc": 35439, "NEWS": 27359, "che": 2871, "Ġnineteen": 40126, "Ġmain": 1049, "zanne": 42562, "ĠNess": 34110, "ĠMaybe": 5359, "ĠKry": 20699, "Ġcircuit": 9326, "Ġay": 16749, "Ġchiefs": 15201, "Ġaverages": 15613, "ĠPreviously": 14821, "ĠCompliance": 32611, "Meg": 40555, "ucking": 24029, "Ġfa": 18363, "gotten": 35095, "SL": 11160, "ĠAmp": 39085, "ĠJulian": 10148, "ouble": 43591, "Ġspectators": 17596, "ĠFerguson": 8889, "enfranch": 48717, "request": 16604, "Ġadherent": 48059, "ĠVaughan": 25925, "rike": 39969, "isco": 15069, "atican": 47474, "Ġdeals": 2656, "pan": 12560, "Ġmeth": 17677, "MW": 19454, "Ġdurability": 28327, "positive": 22173, "Ġsubsystem": 44890, "ĠBroadcast": 31872, "ĠDiego": 3402, "ERO": 37553, "Ġfibers": 32902, "instein": 40335, "Ġtendency": 16699, "ĠBeing": 8374, "ĠKenneth": 12394, "itte": 13537, "ĠPhantom": 30099, "embedreportprint": 50171, "Ġpastors": 31369, "ĠRan": 9462, "Ġhub": 6756, "ĠVi": 16376, "repre": 46737, "131": 25433, "ositories": 48746, "Ġtownship": 19037, "Configuration": 49602, "*=-": 50255, "Ark": 41441, "ĠJudy": 16540, "accompanied": 46476, "Ġconcent": 28289, "ĠGREEN": 34396, "ĠBeach": 2467, "Ġscope": 7401, "Quote": 48065, "lease": 40871, "Ġrapport": 27839, "uctions": 38024, "Hide": 46455, "Ġboard": 792, "system": 19675, "ĠAccess": 8076, "Ġrequire": 2703, "ourage": 22815, "Ġtrillion": 4700, "Ġexpans": 44201, "Ġdil": 14632, "395": 31330, "ename": 45838, "handler": 45291, "note": 32903, "Ġcarries": 5723, "ĠNeigh": 16853, "end": 1397, "emy": 27171, "ĠScotland": 3430, "ĠFaul": 23051, "Ļ": 27, "Ġlandmarks": 29680, "Ġheadquartered": 15830, "ĠCitizen": 16436, "ĠMum": 20675, "Ġsquare": 3925, "Ġ570": 22599, "nin": 27605, "breeding": 44185, "Ġls": 47514, "ĠPeng": 34597, "itching": 22853, "ĠTomorrow": 19681, "Ġenslaved": 38216, "Ġdevil": 22406, "\":": 7862, "igsaw": 40088, "Ġconversion": 10012, "ĠRÃ©": 38692, "Ġafraid": 6023, "Ġclosed": 1367, "ĠMystery": 34039, "ĠMats": 20831, "ĠTr": 2393, "Ul": 41436, "Ġpassword": 14844, "Ġr": 910, "Ġthicker": 33997, "Ġpolymorph": 48052, "ĠTAG": 41487, "ocene": 42416, "Ġgeographically": 34383, "397": 34991, "Re": 9064, "kg": 9043, "ĠRiv": 17926, "ĠPharm": 20665, "Ġadvis": 33879, "Ġ7": 262, "ĠNim": 26173, "ĠBethlehem": 26557, "ĠSatanic": 44881, "Ġsingers": 18301, "Registration": 45366, "\\\":": 49871, "ĠÏĦ": 48353, "Ġcorporations": 9053, "trigger": 45043, "entary": 39494, "Ġpresidency": 5662, "ĠSystems": 5778, "Ġdelegate": 27869, "Ġ400": 3675, "laughter": 42999, "Cash": 32987, "Ġdetermines": 23483, "ĠMachine": 14969, "Ġpedal": 26965, "ĠSoy": 21185, "Ġattainment": 38302, "484": 37810, "Ġhtml": 48445, "ĠSov": 41162, "woods": 27684, "ĠMechdragon": 50196, "Air": 17906, "ĠGaia": 42487, "Ġlig": 14038, "Ġborrowed": 18913, "Ġimply": 25696, "Particip": 44759, "UD": 13083, "Ġarra": 14108, "animate": 45687, "conn": 22854, "ĠCit": 7801, "Ġmech": 46833, "olves": 34190, "Ġvillage": 3375, "Also": 22412, "rawler": 44790, "Ġla": 897, "ĠOlivia": 11924, "etic": 15557, "Ġroutine": 6108, "sung": 34160, "Ġdecl": 16163, "Ġauthenticated": 44723, "amiliar": 42911, "ĠPetro": 12453, "ĠDemand": 15936, "olute": 27184, "Ġuprising": 18837, "thirds": 10224, "rique": 25821, "iosyn": 49606, "ĠJacket": 39270, "Ġbicy": 44821, "Ġsatir": 42142, "icro": 46473, "Ġpace": 2877, "Jordan": 34057, "Ġsimul": 44032, "Ġdun": 30261, "Ġspecimens": 36366, "Ġinches": 4877, "gamer": 45864, "Ġfiles": 6773, "Ġconverge": 36748, "Us": 16419, "Ġcounter": 3231, "Ġreceived": 829, "LET": 24258, "Ġsensory": 30008, "Ġunlocked": 22804, "SP": 4186, "Ġrite": 41326, "ĠRouter": 46751, "Search": 39954, "Peace": 39370, "Offic": 43188, "ĠMoran": 21870, "Ġmurm": 43692, "Keeping": 37840, "ises": 5504, "Ġ336": 34454, "cf": 19911, "Xi": 41296, "objects": 48450, "Ġgrill": 20212, "ĠBasin": 15066, "Ġpersisted": 28786, "Ġpuppy": 20830, "ĠSupply": 13612, "ĠLanka": 8500, "Ġfilings": 9045, "Ġ317": 35183, "Ġeats": 24923, "Ġanimal": 3477, "Ġ640": 37101, "Ġscar": 14061, "dom": 12623, "ĠSOME": 41812, "ĠCla": 28100, "ĠRarity": 49120, "Ġdash": 12575, "Ub": 44588, "ĠSul": 17074, "Ġcontained": 5558, "Ġproduce": 2592, "ĠNightmare": 42438, "Ġwr": 14902, "Ġsuspension": 5436, "avanaugh": 39761, "houn": 25446, "Ġ...\"": 43101, "ĠWM": 30355, "ental": 13589, "ĠSterling": 9381, "ĠAbout": 1936, "Ġinfographic": 42745, "Pand": 45741, "Ġprovisional": 21571, "ĠKis": 23879, "Ġacquainted": 37743, "You": 1185, "ĠMusic": 3920, "ĠBG": 29594, "Ġaristocracy": 45455, "ĠLawrence": 6226, "Ġpunishable": 28939, "WF": 34189, "azaar": 26496, "Ġlobster": 25475, "ĠAzure": 25959, "Canada": 14031, "ĠCONFIG": 49517, "Ġcodec": 45797, "261": 32972, "uster": 10504, "Ġhippocamp": 48464, "ĠDeus": 45345, "Ġaquarium": 33734, "ĠFront": 7204, "Ġpreschool": 23188, "Ġarteries": 33847, "ĠGame": 2436, "ĠCedar": 15875, "Ġashes": 24936, "Ġgenerators": 21908, "slave": 46203, "Ġlaure": 34397, "vision": 14675, "ĠBunker": 40775, "stage": 10850, "ĠAside": 14747, "ĠVas": 12599, "ographical": 25032, "ymph": 36935, "Harris": 37302, "ĠClassics": 37885, "Ell": 31870, "ĠAld": 8019, "Ġcolumn": 6730, "Ġappropri": 40194, "ĠStefan": 14538, "burse": 30564, "ĠCertain": 25122, "ĠCortex": 43925, "ĠVij": 13444, "ĠLimbaugh": 42587, "Ġthreshold": 11543, "Ġpine": 22716, "ĠJewish": 4586, "Ġpickups": 36426, "Ġstru": 39180, "ĠWave": 21180, "Ġsto": 20572, "Ġdestroyed": 4957, "ifiers": 27368, "ĠTycoon": 47266, "idae": 46780, "center": 15497, "TOP": 28332, "Ġcontractual": 26015, "ĠBeats": 31976, "oku": 20714, "ĠGrey": 10558, "Success": 42697, "VALUE": 49313, "ĠHel": 6851, "iren": 23832, "zik": 38250, "Ġsuspected": 3986, "Ġresur": 21816, "otechnology": 17634, "Ġ1942": 27784, "Ġtighter": 15976, "orange": 41964, "blog": 24635, "ĠDevon": 17264, "Ġspins": 35003, "Ġloud": 7337, "Roy": 20512, "ĠCul": 15270, "zz": 7399, "Ġparticle": 33100, "Far": 20680, "ĠKuwait": 13857, "ĻĤ": 48985, "113": 19547, "ĠRel": 8136, "ĠIND": 12569, "profit": 7699, "Added": 47606, "Ġdemons": 28803, "Ġseparating": 18246, "uint": 47157, "Normally": 40113, "Ġpornographic": 38739, "Ġwhen": 77, "Ġflora": 39456, "ĠHor": 6746, "pling": 20418, "Ġmaterials": 3183, "ĠLife": 3126, "ĠBrewery": 25125, "Ġparasitic": 43108, "370": 21713, "amph": 46976, "oooooooooooooooo": 49294, "cific": 45404, "ĠBox": 7803, "ĠEMP": 42384, "left": 6960, "Ġ47": 4034, "ãĤ»": 49754, "O": 673, "ĠNicotine": 47379, "hee": 14603, "ĠCLR": 48093, "Ġglobally": 7197, "Ġdowngrade": 19637, "Ġfunn": 29310, "373": 34099, "ĠClement": 16282, "ceptions": 35529, "Ġbumper": 20314, "Ġplayoffs": 4673, "chard": 15782, "à¤": 14238, "[": 10975, "Ġerroneous": 36973, "Ġeduc": 30218, "EEK": 44244, "atu": 20355, "ĠLondon": 928, "jection": 35892, "FUN": 45354, "Ġrestitution": 26783, "Ġspokesperson": 4032, "GEN": 30965, "Ġdeserve": 6565, "ē": 50127, "Ġembassies": 31355, "Ġstared": 32392, "ĠWrestle": 18457, "hoff": 22701, "ĠTraffic": 11830, "Ġlaborers": 37735, "Ġdram": 26274, "Ġgri": 35747, "Ġvillains": 31937, "ĠWarm": 19516, "EX": 6725, "ĠSylv": 28856, "Circ": 43412, "Ġfaux": 27160, "III": 24457, "Ġoutpost": 32147, "Ġintersection": 8088, "rey": 5460, "Ġdiscredit": 27875, "Gil": 38981, "Ġwithdrew": 13666, "ĠRamsay": 30028, "Sah": 44848, "ppy": 12949, "Torrent": 46085, "aintain": 37205, "scl": 48326, "Ġlauncher": 38524, "Ġallegedly": 2346, "Ġsitu": 20379, "ĠAFP": 5040, "cki": 24772, "Ġexch": 46208, "recogn": 28039, "sensitive": 24235, "Ġnuanced": 29311, "ĠAsk": 12738, "ĠGregory": 12006, "Ġcontradictions": 37186, "Ġproof": 6461, "ĠBuch": 19443, "Ġseries": 651, "ulton": 42094, "Ġcomprom": 40734, "Ġbrewing": 20525, "......": 43796, "CR": 9822, "Ī": 23133, "Ġ298": 37353, "atos": 29501, "Ġhep": 45441, "Ġ295": 33891, "Ġvehicle": 1155, "Ġtill": 6612, "Ġreasoned": 37344, "issan": 39489, "Count": 23329, "×ľ": 47759, "ently": 7240, "um": 783, "ĠDism": 39562, "Ġmeas": 40540, "insky": 16444, "Ġexported": 22332, "Ġarray": 8932, "ĠWater": 3201, "layout": 48842, "Ġelegance": 32595, "Ġapprove": 7244, "igrants": 24280, "Ġkeys": 10654, "inos": 10968, "Ġarticulated": 33508, "ths": 15561, "Ġplatoon": 38643, "Ġnormally": 6329, "Ġfoods": 6592, "ĠGram": 14171, "Ġuneven": 25169, "Ġvote": 900, "etsk": 46171, "ĠYOUR": 21688, "ĠCaller": 25368, "Ġencaps": 32831, "asant": 35392, "aman": 7243, "itures": 37529, "Jesus": 33877, "Ġmages": 49300, "ĠJail": 10509, "awei": 44087, "ĠExtend": 45822, "Ġdom": 13567, "nn": 15688, "eland": 9999, "Ġpoetic": 33709, "Ġtrave": 49352, "entious": 40058, "Ġintens": 18420, "udding": 43233, "Ġalleviate": 19893, "ĠVie": 22508, "Ġdeteriorated": 23677, "ĠFlav": 33159, "icidal": 42743, "Ġ2": 132, "icked": 14851, "ĠMessiah": 41547, "ĠUSC": 10666, "Ġtarget": 1002, "sov": 27322, "Ġobscured": 38285, "ĠNathan": 7738, "Ġwithdrawing": 20049, "Ġfellows": 36304, "Ġsup": 28836, "ĠTucker": 13336, "Ġaccompanied": 7513, "Ġlease": 7792, "ĠTelecommunications": 31121, "ĠShared": 38559, "Ġwebs": 43972, "Ġformation": 9285, "orescence": 45094, "WR": 19839, "atography": 34226, "Ġrelatives": 6774, "REAM": 28057, "Ju": 27324, "ĠConj": 44580, "Ġimproper": 18418, "Ġobjected": 20934, "ĠEng": 8227, "Ġreach": 1338, "build": 23411, "Ġbehalf": 4137, "Ġoccurs": 11493, "ĠGener": 15745, "ĠSQL": 41614, "Ġequity": 2355, "Ġstolen": 3579, "Ġmajorities": 33431, "ĠHero": 15766, "Adams": 36288, "bard": 34987, "Ġresearcher": 9338, "Ġthey": 51, "Cover": 45158, "Ġdec": 5044, "ĠWu": 17370, "Ġworkers": 1138, "Near": 46034, "ieft": 31916, "shape": 43882, "ĠWhale": 34724, "Ġstadiums": 22755, "ensional": 49220, "ĠIrwin": 26062, "ĠBy": 870, "FOX": 26931, "Altern": 47868, "Post": 21585, "Ġstrategically": 19055, "ains": 5069, "irez": 45082, "Ġbri": 43329, "eny": 18199, "Ġgrazing": 26881, "72": 4956, "Hidden": 43024, "imity": 45853, "Ġlimiting": 11361, "ĠExercise": 30450, "Ġtextbooks": 31266, "nesium": 45684, "249": 25048, "ĠAnniversary": 23741, "ĠTownsend": 22584, "ĠDusk": 46680, "thora": 48795, "Ġpolitely": 33615, "((": 48461, "06": 4124, "Ġranging": 6272, "Which": 32251, "Ġhelmet": 13722, "unic": 26488, "Ġslice": 15711, "ropolitan": 45823, "ĠZucker": 37809, "Wow": 23692, "Ġ354": 39590, "Ġdermat": 27348, "Administ": 45597, "rocal": 46966, "Andrew": 19843, "Ġlinen": 37919, "urger": 25278, "Map": 41151, "Ġfloor": 1929, "ĠWinged": 46784, "conference": 16459, "ĠBond": 7291, "Sp": 12582, "eight": 19491, "round": 3431, "Ġcontrol": 797, "Ġsubdiv": 39291, "ĠWidth": 47107, "Ġchloride": 40744, "Ġconting": 38478, "Ġreacted": 13607, "Earth": 34526, "308": 31335, "Ġsensational": 16851, "Ġhunger": 12226, "earned": 23231, "Ġorganisms": 28340, "Begin": 48290, "ither": 15027, "ĠWAS": 26817, "ĠWiggins": 25243, "inas": 11275, "Ġveget": 37999, "enery": 37897, "ĠJust": 1801, "Ġambassadors": 22440, "Ġbanning": 13241, "Anth": 48511, "Ġunreasonable": 24941, "ĠInnovation": 12469, "ĠRoute": 8828, "ias": 5003, "upe": 25831, "Ġdiscounted": 17533, "ĠTreatment": 19120, "Ġblacks": 20465, "Ġfootball": 1037, "LES": 26896, "ĠFreeman": 11460, "venant": 45337, "Ġclinging": 31655, "INT": 17831, "Ġbeginner": 37239, "ier": 906, "Without": 20867, "Ġmainline": 42656, "ĠEdgar": 20630, "Ġintend": 10557, "ĠGale": 26454, "Ġsunshine": 15049, "downs": 20650, "Ġdeficits": 16567, "Ġinsist": 13195, "ĠThank": 3837, "Warning": 43370, "Ġdeterior": 26694, "ĠOPT": 40630, "VERTIS": 44335, "ĠDeVos": 18977, "liber": 39176, "Ġpatients": 1484, "ĠGets": 32810, "Ġforestry": 29767, "ics": 2857, "Ġdx": 49386, "Ġsorely": 33801, "Ġfascinated": 27025, "ĠIPv": 46010, "Ġcontingent": 16050, "ĠOption": 28316, "letico": 12533, "rolet": 47318, "Ġphotography": 11075, "auer": 9994, "ĠJaneiro": 20698, "Ġ737": 22300, "Ġvirgin": 33799, "ĠSL": 10962, "urses": 44416, "Ġcoincidence": 21279, "Ġlookout": 25220, "ĠPillar": 38464, "ĠViews": 37200, "ĠFt": 34434, "Ġcurs": 35496, "ĠSoul": 16455, "!": 328, "Call": 20653, "Ġdiagn": 25378, "bits": 32131, "lymp": 31434, "=\\\"": 50003, "ĠFilm": 6026, "Ġadrenaline": 29625, "Ġte": 3055, "Ġavail": 22345, "ATE": 8625, "ĠHurt": 31797, "Ġhumid": 27280, "Balt": 44084, "Ġsensor": 9626, "ries": 4458, "iger": 10168, "::::": 49710, "jun": 18115, "å¤": 47983, "/\"": 47770, "ecake": 35427, "ĠFear": 18019,
[...]
